#include "models/mnist_qat_model.h"

const unsigned char flower_model[] = {
  0x1c, 0x00, 0x00, 0x00, 0x54, 0x46, 0x4c, 0x33, 0x14, 0x00, 0x20, 0x00,
  0x1c, 0x00, 0x18, 0x00, 0x14, 0x00, 0x10, 0x00, 0x0c, 0x00, 0x00, 0x00,
  0x08, 0x00, 0x04, 0x00, 0x14, 0x00, 0x00, 0x00, 0x1c, 0x00, 0x00, 0x00,
  0x98, 0x00, 0x00, 0x00, 0xf0, 0x00, 0x00, 0x00, 0x44, 0x18, 0x00, 0x00,
  0x54, 0x18, 0x00, 0x00, 0x30, 0x27, 0x00, 0x00, 0x03, 0x00, 0x00, 0x00,
  0x01, 0x00, 0x00, 0x00, 0x10, 0x00, 0x00, 0x00, 0x00, 0x00, 0x0a, 0x00,
  0x10, 0x00, 0x0c, 0x00, 0x08, 0x00, 0x04, 0x00, 0x0a, 0x00, 0x00, 0x00,
  0x0c, 0x00, 0x00, 0x00, 0x1c, 0x00, 0x00, 0x00, 0x3c, 0x00, 0x00, 0x00,
  0x0f, 0x00, 0x00, 0x00, 0x73, 0x65, 0x72, 0x76, 0x69, 0x6e, 0x67, 0x5f,
  0x64, 0x65, 0x66, 0x61, 0x75, 0x6c, 0x74, 0x00, 0x01, 0x00, 0x00, 0x00,
  0x04, 0x00, 0x00, 0x00, 0x90, 0xff, 0xff, 0xff, 0x15, 0x00, 0x00, 0x00,
  0x04, 0x00, 0x00, 0x00, 0x08, 0x00, 0x00, 0x00, 0x6f, 0x75, 0x74, 0x70,
  0x75, 0x74, 0x5f, 0x30, 0x00, 0x00, 0x00, 0x00, 0x01, 0x00, 0x00, 0x00,
  0x04, 0x00, 0x00, 0x00, 0xa2, 0xe7, 0xff, 0xff, 0x04, 0x00, 0x00, 0x00,
  0x0f, 0x00, 0x00, 0x00, 0x6b, 0x65, 0x72, 0x61, 0x73, 0x5f, 0x74, 0x65,
  0x6e, 0x73, 0x6f, 0x72, 0x5f, 0x34, 0x30, 0x00, 0x02, 0x00, 0x00, 0x00,
  0x34, 0x00, 0x00, 0x00, 0x04, 0x00, 0x00, 0x00, 0xdc, 0xff, 0xff, 0xff,
  0x18, 0x00, 0x00, 0x00, 0x04, 0x00, 0x00, 0x00, 0x13, 0x00, 0x00, 0x00,
  0x43, 0x4f, 0x4e, 0x56, 0x45, 0x52, 0x53, 0x49, 0x4f, 0x4e, 0x5f, 0x4d,
  0x45, 0x54, 0x41, 0x44, 0x41, 0x54, 0x41, 0x00, 0x08, 0x00, 0x0c, 0x00,
  0x08, 0x00, 0x04, 0x00, 0x08, 0x00, 0x00, 0x00, 0x17, 0x00, 0x00, 0x00,
  0x04, 0x00, 0x00, 0x00, 0x13, 0x00, 0x00, 0x00, 0x6d, 0x69, 0x6e, 0x5f,
  0x72, 0x75, 0x6e, 0x74, 0x69, 0x6d, 0x65, 0x5f, 0x76, 0x65, 0x72, 0x73,
  0x69, 0x6f, 0x6e, 0x00, 0x19, 0x00, 0x00, 0x00, 0x50, 0x17, 0x00, 0x00,
  0x48, 0x17, 0x00, 0x00, 0xf8, 0x16, 0x00, 0x00, 0xc8, 0x16, 0x00, 0x00,
  0x38, 0x16, 0x00, 0x00, 0xe8, 0x13, 0x00, 0x00, 0x98, 0x13, 0x00, 0x00,
  0x68, 0x12, 0x00, 0x00, 0x38, 0x12, 0x00, 0x00, 0x28, 0x0a, 0x00, 0x00,
  0x18, 0x08, 0x00, 0x00, 0x88, 0x04, 0x00, 0x00, 0x5c, 0x04, 0x00, 0x00,
  0x44, 0x04, 0x00, 0x00, 0xd4, 0x00, 0x00, 0x00, 0xcc, 0x00, 0x00, 0x00,
  0xc4, 0x00, 0x00, 0x00, 0xbc, 0x00, 0x00, 0x00, 0xb4, 0x00, 0x00, 0x00,
  0xac, 0x00, 0x00, 0x00, 0xa4, 0x00, 0x00, 0x00, 0x9c, 0x00, 0x00, 0x00,
  0x94, 0x00, 0x00, 0x00, 0x74, 0x00, 0x00, 0x00, 0x04, 0x00, 0x00, 0x00,
  0x82, 0xe8, 0xff, 0xff, 0x04, 0x00, 0x00, 0x00, 0x60, 0x00, 0x00, 0x00,
  0x10, 0x00, 0x00, 0x00, 0x00, 0x00, 0x00, 0x00, 0x08, 0x00, 0x0e, 0x00,
  0x08, 0x00, 0x04, 0x00, 0x08, 0x00, 0x00, 0x00, 0x10, 0x00, 0x00, 0x00,
  0x24, 0x00, 0x00, 0x00, 0x00, 0x00, 0x06, 0x00, 0x08, 0x00, 0x04, 0x00,
  0x06, 0x00, 0x00, 0x00, 0x04, 0x00, 0x00, 0x00, 0x00, 0x00, 0x00, 0x00,
  0x0c, 0x00, 0x18, 0x00, 0x14, 0x00, 0x10, 0x00, 0x0c, 0x00, 0x04, 0x00,
  0x0c, 0x00, 0x00, 0x00, 0x49, 0x1b, 0x6a, 0xf6, 0xad, 0x14, 0x56, 0x00,
  0x02, 0x00, 0x00, 0x00, 0x02, 0x00, 0x00, 0x00, 0x04, 0x00, 0x00, 0x00,
  0x06, 0x00, 0x00, 0x00, 0x32, 0x2e, 0x31, 0x38, 0x2e, 0x30, 0x00, 0x00,
  0xee, 0xe8, 0xff, 0xff, 0x04, 0x00, 0x00, 0x00, 0x10, 0x00, 0x00, 0x00,
  0x31, 0x2e, 0x36, 0x2e, 0x30, 0x00, 0x00, 0x00, 0x00, 0x00, 0x00, 0x00,
  0x00, 0x00, 0x00, 0x00, 0xe8, 0xda, 0xff, 0xff, 0xec, 0xda, 0xff, 0xff,
  0xf0, 0xda, 0xff, 0xff, 0xf4, 0xda, 0xff, 0xff, 0xf8, 0xda, 0xff, 0xff,
  0xfc, 0xda, 0xff, 0xff, 0x00, 0xdb, 0xff, 0xff, 0x04, 0xdb, 0xff, 0xff,
  0x2a, 0xe9, 0xff, 0xff, 0x04, 0x00, 0x00, 0x00, 0x60, 0x03, 0x00, 0x00,
  0x09, 0x52, 0xe6, 0xbb, 0x7f, 0x46, 0xa4, 0xbb, 0x18, 0xcd, 0x31, 0x3b,
  0x37, 0x85, 0xa4, 0xb9, 0x9d, 0x15, 0x62, 0xbb, 0x25, 0x58, 0x03, 0xbb,
  0x5e, 0xad, 0x8c, 0xba, 0xb8, 0x6f, 0xe9, 0x3a, 0x89, 0xae, 0x83, 0x3b,
  0x69, 0x43, 0xcc, 0xbb, 0x1d, 0xfa, 0x00, 0xb9, 0xd1, 0xfc, 0xf3, 0x3a,
  0xd1, 0xcd, 0x1f, 0x3a, 0x78, 0xf5, 0x86, 0x3b, 0x53, 0xfa, 0xc5, 0x3a,
  0xe5, 0xca, 0xc4, 0x3b, 0x8c, 0xc8, 0xa7, 0x3b, 0x79, 0x32, 0x09, 0x3a,
  0x3f, 0xfe, 0x36, 0x3a, 0xbf, 0x72, 0xb5, 0x3b, 0xc0, 0xfd, 0x2d, 0x3b,
  0x5c, 0xdc, 0xfc, 0xbb, 0x85, 0x98, 0x72, 0x3a, 0x29, 0xf6, 0xf8, 0xba,
  0xa5, 0x2c, 0x0c, 0x3b, 0xda, 0xed, 0x9d, 0x3b, 0xb6, 0xd2, 0xf2, 0xbb,
  0x90, 0xe6, 0x0b, 0x3b, 0xa8, 0xed, 0x2f, 0xba, 0x4c, 0xb1, 0x76, 0x3a,
  0x29, 0x85, 0x00, 0xba, 0xbc, 0x73, 0x53, 0xbb, 0xd9, 0xbe, 0xc1, 0x3a,
  0x1f, 0x3a, 0x7c, 0x3a, 0x9c, 0x3c, 0x2e, 0xbb, 0xbc, 0x4f, 0x82, 0x3b,
  0x9b, 0xa7, 0x86, 0xbb, 0x00, 0xf8, 0x7c, 0xbb, 0x0d, 0x32, 0x0b, 0xbb,
  0x8b, 0x4c, 0x42, 0xbb, 0xaa, 0x8c, 0x32, 0x3b, 0x4a, 0x6b, 0x46, 0x3b,
  0xbd, 0x77, 0x4e, 0x3b, 0xe1, 0x44, 0x35, 0xbb, 0x3e, 0x2b, 0xff, 0xba,
  0x52, 0xe2, 0x68, 0xbb, 0xe3, 0x78, 0x6d, 0x3b, 0xe4, 0xa3, 0x75, 0x3b,
  0x9c, 0x58, 0x32, 0xbb, 0x8a, 0xb9, 0x41, 0xbb, 0x37, 0x2d, 0x53, 0x3b,
  0x41, 0x50, 0x23, 0xbb, 0xb1, 0x75, 0x19, 0x3a, 0xff, 0x8c, 0x22, 0xba,
  0x0d, 0x27, 0x37, 0xba, 0x0e, 0x93, 0xff, 0x3a, 0xb3, 0xca, 0xec, 0x3a,
  0xaa, 0x28, 0xb8, 0x3a, 0x34, 0x06, 0x63, 0xbb, 0x8e, 0x0b, 0x60, 0x3b,
  0xe3, 0x21, 0x9e, 0x3b, 0x75, 0xe9, 0x8d, 0x3a, 0x7b, 0x23, 0x4d, 0x3a,
  0xc5, 0xc3, 0x28, 0x3b, 0xaa, 0x0e, 0x2d, 0xbb, 0x39, 0xfb, 0x96, 0x3b,
  0xa9, 0x30, 0x09, 0xb9, 0x03, 0x6c, 0x88, 0xba, 0x59, 0x35, 0x0f, 0xbb,
  0xa2, 0x63, 0xa4, 0x3a, 0xaa, 0x66, 0x6b, 0x39, 0x56, 0x38, 0xa3, 0xba,
  0x60, 0x96, 0xaf, 0x3a, 0xcb, 0x24, 0x93, 0xbb, 0x26, 0x3c, 0x34, 0x3b,
  0xee, 0x4a, 0x0d, 0x3b, 0xb8, 0xb4, 0x95, 0xbb, 0x8f, 0x90, 0x50, 0x3b,
  0xbb, 0x2d, 0x84, 0x39, 0x99, 0x37, 0xfa, 0x3a, 0x4f, 0xa6, 0x8a, 0xba,
  0xd6, 0x66, 0x88, 0xba, 0xa8, 0xd9, 0x6a, 0x39, 0x71, 0x8c, 0x9e, 0x39,
  0x02, 0x2b, 0x33, 0xbb, 0xb8, 0x11, 0x6d, 0x3b, 0xd9, 0x43, 0x3d, 0xba,
  0x4e, 0x4d, 0x29, 0xbb, 0x8c, 0x80, 0x6f, 0x3a, 0xb5, 0x7b, 0xb8, 0xba,
  0x1c, 0x0d, 0x16, 0xba, 0x15, 0x6e, 0xc0, 0x3a, 0xc3, 0xc2, 0x87, 0x3a,
  0xab, 0x9a, 0xce, 0xba, 0x79, 0x5d, 0xab, 0x3a, 0x34, 0x77, 0x1f, 0xbb,
  0x63, 0x90, 0x28, 0x3b, 0xab, 0x25, 0xf1, 0xba, 0xea, 0xe5, 0x42, 0xbb,
  0x9c, 0xea, 0xc8, 0x39, 0x4a, 0x12, 0xd0, 0xba, 0x04, 0xd4, 0xd2, 0x3a,
  0xad, 0x16, 0x6e, 0xbb, 0x6a, 0x11, 0xf9, 0x3a, 0x9d, 0x5e, 0x64, 0xba,
  0x0a, 0x61, 0x84, 0xba, 0x75, 0x9a, 0xa8, 0xba, 0xe0, 0x7d, 0x8f, 0x39,
  0x69, 0x37, 0xa1, 0x3b, 0xbe, 0xc1, 0xdb, 0xba, 0x49, 0xe9, 0x12, 0xba,
  0x61, 0x8d, 0x2e, 0xbb, 0xdd, 0xb0, 0x88, 0xbb, 0xaa, 0xf7, 0x99, 0x3b,
  0x0d, 0xb9, 0x9b, 0x3b, 0xe7, 0xf0, 0x9b, 0xba, 0xbe, 0x86, 0x92, 0x3b,
  0x29, 0xa6, 0xc8, 0xba, 0x77, 0x72, 0xab, 0x39, 0x22, 0x1c, 0x9b, 0x3a,
  0xa8, 0xfa, 0x99, 0x3b, 0x0c, 0x4d, 0x7f, 0xbb, 0x7a, 0x3e, 0x85, 0x3b,
  0x48, 0x1e, 0xe5, 0x3a, 0x22, 0xf2, 0xdb, 0xbb, 0xe3, 0xc8, 0x65, 0x3a,
  0x24, 0x57, 0x9d, 0xb9, 0x5f, 0xaf, 0xba, 0xb9, 0x10, 0x34, 0x93, 0xba,
  0x26, 0x42, 0x1b, 0x3b, 0x56, 0xe8, 0x2f, 0xbb, 0x2b, 0xa4, 0x41, 0xbb,
  0x01, 0x8a, 0xe4, 0x39, 0x5f, 0xbc, 0x8b, 0x3b, 0x8f, 0x3b, 0x55, 0xba,
  0x3f, 0xc0, 0x6f, 0x3b, 0xdb, 0x4e, 0x81, 0xbb, 0x7a, 0x90, 0x6c, 0xb9,
  0x1b, 0x1a, 0xee, 0xb9, 0x08, 0xbe, 0x9b, 0xbb, 0xd6, 0xa8, 0xca, 0xbb,
  0x51, 0x50, 0x74, 0xbb, 0x69, 0xb8, 0x23, 0xbb, 0x01, 0xdb, 0x38, 0x39,
  0x4d, 0xf6, 0xb1, 0xbb, 0xe2, 0x8a, 0xd3, 0xbb, 0x4c, 0xec, 0xd3, 0xba,
  0x68, 0xfd, 0xfb, 0x3a, 0x41, 0x09, 0x63, 0xbb, 0xfd, 0x55, 0x22, 0x3b,
  0x6f, 0xad, 0xc1, 0xba, 0x02, 0x07, 0x61, 0xb8, 0x2b, 0x54, 0xe6, 0x3a,
  0xc2, 0x4e, 0xfc, 0x3a, 0xc5, 0x56, 0xb2, 0x3b, 0xd9, 0xf8, 0x1b, 0x3c,
  0x27, 0x0f, 0x4a, 0xbb, 0xb7, 0xa4, 0xe5, 0x3b, 0x5b, 0x22, 0x2f, 0x3b,
  0xb3, 0x2c, 0xbd, 0xb9, 0xd7, 0x1a, 0x29, 0x3b, 0xca, 0xed, 0x3f, 0xbb,
  0x56, 0x2f, 0xb7, 0x3b, 0x58, 0xad, 0xc2, 0xbb, 0x5a, 0x77, 0xda, 0xba,
  0x4b, 0x19, 0xba, 0x3a, 0x3d, 0x7f, 0x77, 0x3b, 0x25, 0x46, 0xd2, 0xbb,
  0xcb, 0xe0, 0x48, 0xba, 0xd6, 0xef, 0x94, 0xbb, 0xe5, 0x0f, 0x91, 0xbb,
  0x39, 0x22, 0xb6, 0x3a, 0xae, 0x26, 0x35, 0xba, 0x54, 0xa6, 0x30, 0x3b,
  0x0f, 0x6a, 0x99, 0x3b, 0x36, 0x8c, 0xa2, 0xbb, 0x65, 0x64, 0x74, 0xba,
  0x95, 0x60, 0xa8, 0x3a, 0x47, 0x18, 0xac, 0x3a, 0x42, 0x4a, 0x57, 0x3b,
  0x91, 0x38, 0x83, 0x3b, 0xd8, 0x74, 0x2b, 0xb9, 0x63, 0x29, 0xab, 0xbb,
  0x56, 0x8d, 0x32, 0xbb, 0x2e, 0x83, 0xcd, 0xbb, 0xe3, 0x9d, 0x98, 0x3b,
  0x94, 0x20, 0x4f, 0xbb, 0xad, 0xf7, 0x16, 0xba, 0x75, 0x87, 0x2a, 0xba,
  0x37, 0x47, 0x0f, 0xbb, 0x7c, 0xbf, 0x39, 0x3a, 0x24, 0x4a, 0xe5, 0xba,
  0xb6, 0x9c, 0x35, 0x39, 0xb3, 0xb2, 0x81, 0x3a, 0x68, 0xf9, 0xa0, 0x3a,
  0xc5, 0x26, 0x45, 0xbb, 0xec, 0x13, 0xd3, 0xba, 0x90, 0x7e, 0xae, 0xba,
  0x24, 0x28, 0xe4, 0xba, 0x8a, 0xd2, 0x02, 0xbb, 0xe1, 0x52, 0xd8, 0x3a,
  0x0f, 0xbb, 0xda, 0x39, 0xb6, 0x9d, 0xfc, 0xba, 0x5f, 0x50, 0xc3, 0xba,
  0xaf, 0x74, 0x34, 0xba, 0x9a, 0xc6, 0x1d, 0x3b, 0x47, 0xb5, 0x69, 0x3b,
  0x78, 0xdd, 0x06, 0xbb, 0xeb, 0x6a, 0xe0, 0xba, 0x3f, 0x70, 0xa6, 0xba,
  0x55, 0x6b, 0xe6, 0xb9, 0x7f, 0x6e, 0x07, 0x3b, 0x8e, 0x30, 0x47, 0x39,
  0xa2, 0xf9, 0xde, 0xb8, 0x83, 0x32, 0xbc, 0xba, 0xe6, 0x27, 0x0e, 0x3b,
  0x96, 0xec, 0xff, 0xff, 0x04, 0x00, 0x00, 0x00, 0x08, 0x00, 0x00, 0x00,
  0x01, 0x00, 0x00, 0x00, 0x02, 0x00, 0x00, 0x00, 0xaa, 0xec, 0xff, 0xff,
  0x04, 0x00, 0x00, 0x00, 0x1c, 0x00, 0x00, 0x00, 0x8a, 0xb5, 0x57, 0x3d,
  0x4b, 0xbd, 0xc2, 0x3d, 0xa2, 0xc8, 0x17, 0xbd, 0xeb, 0x23, 0x0e, 0xbd,
  0x99, 0xd4, 0xad, 0x3b, 0x5d, 0x69, 0x83, 0x3d, 0x01, 0x90, 0x0a, 0xbe,
  0xd2, 0xec, 0xff, 0xff, 0x04, 0x00, 0x00, 0x00, 0x80, 0x03, 0x00, 0x00,
  0x5e, 0xc0, 0x1f, 0xbf, 0x29, 0xc6, 0xe1, 0x3e, 0x1d, 0x92, 0x2f, 0xbe,
  0x68, 0x6f, 0xf6, 0x3e, 0x44, 0x17, 0x6e, 0x3d, 0xae, 0xe1, 0x25, 0xbf,
  0x21, 0x5a, 0x02, 0xbe, 0x97, 0x26, 0x7a, 0x3e, 0x86, 0x33, 0x14, 0xbf,
  0x19, 0x4a, 0x06, 0x3f, 0xc7, 0xec, 0xca, 0x3e, 0x0f, 0xfa, 0xad, 0x3e,
  0x2c, 0xab, 0xa4, 0x3c, 0x2d, 0x5e, 0x48, 0x3e, 0x45, 0xff, 0xc8, 0xbe,
  0x33, 0x12, 0x24, 0xbe, 0x7f, 0xfc, 0x8c, 0x3e, 0x28, 0x44, 0x1b, 0xbe,
  0x10, 0xd3, 0xbd, 0xbd, 0x67, 0xc0, 0xd5, 0xbd, 0x09, 0x94, 0x2b, 0x3f,
  0x21, 0xee, 0xe4, 0xbe, 0x20, 0xcd, 0xe5, 0xbe, 0x77, 0x4f, 0xec, 0xbd,
  0x39, 0xde, 0x92, 0xbc, 0xbe, 0x21, 0x4f, 0xbe, 0x4d, 0xca, 0x20, 0xbf,
  0xf1, 0xc8, 0x49, 0xbe, 0xe2, 0xbd, 0x98, 0x3e, 0x93, 0x07, 0xcf, 0x3d,
  0x53, 0xc1, 0x37, 0xbf, 0x4f, 0xa0, 0xee, 0xbe, 0xa4, 0x5e, 0xfc, 0xbe,
  0x82, 0x94, 0x9e, 0x3e, 0x8f, 0x61, 0x39, 0x3e, 0xbc, 0x09, 0x38, 0xbe,
  0x86, 0x0e, 0xef, 0xbe, 0x54, 0x05, 0xb2, 0xbe, 0x6b, 0x8a, 0x96, 0xbe,
  0x95, 0x43, 0x40, 0x3d, 0x66, 0x30, 0xd1, 0x3e, 0x84, 0x9e, 0xdd, 0xbd,
  0x5b, 0x80, 0x28, 0xbf, 0xc0, 0xd2, 0xe6, 0xbe, 0xe0, 0x13, 0x99, 0xbe,
  0x5f, 0xb0, 0x13, 0xbe, 0x52, 0x09, 0x25, 0xbf, 0x7b, 0x8a, 0x12, 0x3f,
  0x08, 0x57, 0xd3, 0xbe, 0x2f, 0x29, 0x34, 0x3e, 0xf4, 0xdc, 0xfe, 0x3e,
  0xe9, 0x98, 0x47, 0x3e, 0x97, 0x01, 0x3a, 0x3e, 0x71, 0xb4, 0x22, 0xbe,
  0xe2, 0x25, 0x3b, 0xbe, 0x58, 0x6a, 0x8f, 0x3e, 0x3a, 0xea, 0x0b, 0xbf,
  0xb9, 0x0c, 0xf0, 0x3e, 0xe2, 0x5f, 0x99, 0xbe, 0x05, 0xf6, 0xcb, 0xbd,
  0x52, 0xe0, 0x8b, 0x3e, 0xfc, 0x56, 0xf8, 0xbd, 0x5f, 0x1b, 0x2a, 0x3e,
  0x33, 0x56, 0x56, 0x3e, 0x52, 0xce, 0xe6, 0x3e, 0xbf, 0xb9, 0x24, 0xbf,
  0x64, 0x7e, 0x3a, 0xbf, 0x67, 0xef, 0x46, 0xbb, 0xfb, 0xb5, 0x7d, 0x3d,
  0x72, 0x2b, 0xd6, 0x3e, 0x77, 0x98, 0x21, 0xbe, 0x12, 0xbd, 0x03, 0x3f,
  0xf5, 0xae, 0x11, 0x3d, 0x9b, 0xe1, 0xb2, 0x3d, 0xc7, 0xa4, 0xe2, 0xbe,
  0x51, 0x66, 0x6a, 0x3e, 0x6d, 0xfb, 0x03, 0x3f, 0x89, 0x0e, 0x4f, 0xbe,
  0x90, 0x07, 0xf2, 0xbe, 0xaa, 0xf1, 0xf6, 0xbe, 0x9d, 0x7e, 0x3c, 0xbf,
  0x81, 0xa8, 0x0d, 0x3f, 0x72, 0xf8, 0x92, 0x3e, 0xd3, 0xdd, 0x7f, 0x3e,
  0x6a, 0xb7, 0x46, 0x3e, 0xf3, 0x44, 0x8f, 0xbe, 0xd5, 0xb9, 0xe4, 0x3d,
  0xa7, 0xb4, 0xc0, 0xbe, 0xe9, 0xf2, 0x2b, 0x3d, 0xff, 0x0b, 0x88, 0xbe,
  0x79, 0x7e, 0x92, 0xbe, 0x91, 0x76, 0xfb, 0xbe, 0xc4, 0x67, 0xa9, 0xbe,
  0x73, 0x9c, 0x1a, 0xbe, 0x6e, 0x1b, 0x4c, 0x3e, 0x9e, 0x5b, 0x0a, 0x3e,
  0xe4, 0xa3, 0x91, 0x3e, 0x9e, 0x3b, 0xbf, 0x3c, 0x1a, 0x68, 0xfd, 0xbe,
  0xba, 0x40, 0xee, 0x3e, 0x10, 0xd3, 0x91, 0x3d, 0x95, 0x00, 0x95, 0xbd,
  0xd2, 0xe6, 0x05, 0x3f, 0x30, 0x1d, 0xbf, 0xbd, 0x4e, 0x23, 0x10, 0xbf,
  0x9a, 0x36, 0x21, 0xbf, 0xab, 0x0a, 0xff, 0xbe, 0xda, 0x87, 0xaa, 0xbe,
  0x56, 0x83, 0xbe, 0xbe, 0xeb, 0x46, 0x02, 0xbf, 0xb5, 0xdb, 0xae, 0xbe,
  0x33, 0x87, 0x90, 0x3e, 0x37, 0x98, 0xb9, 0x3e, 0x57, 0xe7, 0x68, 0xbe,
  0xe4, 0x56, 0x9a, 0xbe, 0x63, 0x0e, 0x1e, 0xbe, 0x6f, 0x75, 0x77, 0xbe,
  0xc6, 0xa1, 0x91, 0x3e, 0x2e, 0x59, 0xad, 0xbe, 0x2f, 0xf1, 0x14, 0x3e,
  0x51, 0x11, 0xd8, 0x3e, 0xba, 0x6b, 0xa7, 0xbe, 0x4c, 0x64, 0x1d, 0x3f,
  0x6e, 0xbb, 0x7d, 0xbe, 0x7e, 0x70, 0x55, 0xbe, 0xb1, 0xad, 0xa2, 0xbd,
  0x0e, 0x7a, 0x34, 0xbf, 0xf4, 0x13, 0x09, 0x3f, 0x29, 0x56, 0xb1, 0x3e,
  0x10, 0x8d, 0x9e, 0xbe, 0xde, 0xd1, 0x6c, 0x3b, 0x78, 0x7a, 0x84, 0xbe,
  0x03, 0xa5, 0xac, 0xbe, 0x3e, 0xc3, 0xb3, 0x3e, 0x08, 0x0d, 0x9f, 0xbe,
  0x8c, 0x47, 0x05, 0xbe, 0x2f, 0x59, 0xaa, 0x3e, 0x84, 0x55, 0x06, 0xbf,
  0x76, 0x04, 0x18, 0x3f, 0x0b, 0x5d, 0xfd, 0x3d, 0x65, 0xf7, 0x6d, 0x3e,
  0x59, 0x7d, 0xb3, 0xbe, 0xc7, 0x72, 0xf4, 0x3e, 0x25, 0xaa, 0xff, 0xbe,
  0xc3, 0x05, 0x45, 0x3e, 0xdb, 0x9f, 0xcc, 0xbe, 0xa3, 0xd6, 0x94, 0xbe,
  0x89, 0xe7, 0xc8, 0xbe, 0xf6, 0x41, 0x24, 0x3e, 0xd0, 0xa9, 0x89, 0xbb,
  0xf8, 0x22, 0x8a, 0xbe, 0x6b, 0xfa, 0x54, 0x3d, 0x0a, 0x50, 0x06, 0x3f,
  0xc8, 0xe2, 0x93, 0x3e, 0x6a, 0xde, 0xb7, 0xbc, 0xbb, 0xce, 0xa0, 0xbe,
  0xa3, 0x26, 0x93, 0xbe, 0x22, 0xf1, 0x4a, 0x3e, 0xb0, 0xf9, 0x88, 0xbe,
  0xfb, 0x14, 0xb7, 0xbe, 0x76, 0x15, 0xfb, 0x3c, 0x8f, 0x3c, 0xfa, 0xbe,
  0xae, 0x1d, 0x2b, 0xbd, 0xca, 0x4a, 0x3d, 0xbe, 0x25, 0x34, 0x12, 0x3c,
  0xb8, 0x4a, 0x74, 0xbe, 0xc3, 0xa0, 0x35, 0xbd, 0x97, 0x1f, 0x6f, 0xbe,
  0xe3, 0xfa, 0x1d, 0xbe, 0xb4, 0x63, 0x12, 0x3f, 0x58, 0xee, 0x59, 0xbd,
  0x82, 0x53, 0xf4, 0xbe, 0x19, 0x45, 0xd1, 0xbd, 0x13, 0x91, 0xe6, 0xbd,
  0xa6, 0x97, 0xd2, 0xbd, 0xc7, 0xaf, 0x92, 0xbe, 0x9a, 0x59, 0x8e, 0xbe,
  0x80, 0xd0, 0x11, 0xbe, 0xcc, 0x27, 0x80, 0x3e, 0x71, 0x21, 0xc9, 0x3e,
  0x49, 0xf4, 0xd7, 0xbe, 0x32, 0x92, 0x91, 0x3e, 0x4e, 0xc8, 0x8f, 0x3e,
  0x94, 0xe7, 0x15, 0xbf, 0x62, 0x73, 0x1a, 0xbf, 0x7d, 0xa1, 0xf0, 0xbe,
  0xfb, 0xa7, 0xf4, 0x3d, 0xca, 0x9c, 0xe5, 0x3e, 0x32, 0x1d, 0x07, 0xbf,
  0x50, 0x2e, 0xfa, 0x3e, 0x0e, 0x3a, 0x08, 0x3f, 0x92, 0x13, 0xdf, 0x3d,
  0x61, 0x25, 0x9b, 0xbe, 0x8e, 0xe6, 0x86, 0xbe, 0x13, 0xb2, 0x03, 0x3f,
  0xd8, 0x2f, 0x63, 0xbd, 0x26, 0xb6, 0x02, 0x3f, 0x22, 0xf4, 0x11, 0x3d,
  0x89, 0x7f, 0x12, 0xbf, 0x34, 0x33, 0x40, 0xbe, 0x94, 0x64, 0xb5, 0xbe,
  0x55, 0xe5, 0x8d, 0x3d, 0x3d, 0x33, 0x0e, 0xbd, 0x0d, 0xa0, 0xef, 0xbe,
  0x6d, 0xab, 0xb6, 0xbe, 0xd7, 0x57, 0xe5, 0xbb, 0x10, 0x65, 0x3c, 0x3e,
  0xeb, 0x37, 0x8f, 0xbd, 0xb2, 0xc4, 0x48, 0xbd, 0x43, 0xc5, 0x41, 0xbe,
  0x29, 0x83, 0xd5, 0xbe, 0xa7, 0xd8, 0xad, 0xbe, 0xf2, 0xbc, 0x0f, 0x3e,
  0x6e, 0xd4, 0x9c, 0x3e, 0x0b, 0x86, 0xc5, 0x3e, 0x81, 0xa3, 0xe4, 0x3e,
  0x16, 0xc0, 0x72, 0x3e, 0xac, 0x7e, 0x58, 0xbe, 0x67, 0xf7, 0x90, 0x3e,
  0x0c, 0xce, 0x78, 0x3c, 0xd0, 0x17, 0x68, 0x3e, 0x34, 0x1c, 0x11, 0x3f,
  0xb7, 0xf7, 0xce, 0x3d, 0xde, 0x67, 0x81, 0xbe, 0x5e, 0xf0, 0xff, 0xff,
  0x04, 0x00, 0x00, 0x00, 0x00, 0x02, 0x00, 0x00, 0x2c, 0x58, 0x11, 0x3f,
  0x14, 0x90, 0xc3, 0x3e, 0x30, 0x10, 0x9c, 0xbd, 0xcd, 0xc9, 0x8a, 0x3f,
  0x7a, 0x75, 0x0b, 0xbf, 0x84, 0x4f, 0xb1, 0xbd, 0x04, 0x70, 0x3d, 0xbf,
  0xfe, 0xd9, 0x16, 0x3f, 0x4e, 0xec, 0x72, 0x3e, 0xbe, 0xf4, 0x4d, 0xbe,
  0xc9, 0x09, 0xf1, 0xbe, 0x03, 0x0c, 0xc0, 0x3d, 0xd4, 0xd4, 0xfb, 0x3d,
  0xd6, 0x7a, 0x1f, 0xbe, 0xa9, 0xcf, 0x7c, 0x3f, 0x56, 0x00, 0xb2, 0xbc,
  0x62, 0x06, 0x0b, 0xbd, 0xd8, 0x2b, 0x0c, 0x3f, 0x43, 0x6e, 0xf3, 0xbe,
  0x55, 0x25, 0xff, 0x3e, 0x6d, 0xfa, 0x8f, 0xbe, 0x89, 0xa4, 0x52, 0xbf,
  0x3b, 0x46, 0xb5, 0xbe, 0x13, 0x10, 0xba, 0xbd, 0x73, 0xd9, 0xbb, 0x3e,
  0xe6, 0x8a, 0x94, 0xbf, 0xf3, 0xc5, 0xfc, 0xbe, 0x91, 0xe5, 0xbb, 0x3e,
  0xa8, 0x60, 0xfc, 0x3e, 0x81, 0x02, 0x9a, 0xbe, 0x3f, 0x21, 0x75, 0xbf,
  0x1b, 0xd9, 0x24, 0xbe, 0xd7, 0x86, 0x92, 0xbf, 0x34, 0x1b, 0x41, 0xbf,
  0xe2, 0xdd, 0xab, 0xbd, 0x5b, 0x27, 0xee, 0xbd, 0xc8, 0x12, 0x18, 0xbf,
  0xf5, 0x2f, 0xc9, 0xbe, 0x2f, 0xc4, 0x1e, 0x3f, 0xe3, 0x8e, 0x29, 0x3f,
  0xa6, 0xd3, 0x6b, 0xbf, 0xe8, 0xe7, 0x8e, 0x3e, 0x0f, 0x72, 0x20, 0x3d,
  0x1f, 0x22, 0x37, 0x3e, 0xaf, 0xd2, 0xa7, 0x3e, 0x1a, 0x50, 0x87, 0x3e,
  0xbc, 0x24, 0x4a, 0xbf, 0x40, 0x78, 0x39, 0x3f, 0x6d, 0x49, 0x41, 0x3f,
  0xa0, 0xb2, 0x83, 0x3f, 0xe7, 0x0b, 0xa6, 0xbf, 0x40, 0x53, 0x16, 0x3c,
  0xdd, 0x67, 0xa8, 0x3c, 0x41, 0x8f, 0x3a, 0x3f, 0x18, 0x74, 0xda, 0x3e,
  0x8e, 0x36, 0x31, 0x3e, 0xc6, 0x08, 0x02, 0x3f, 0x34, 0x23, 0xa5, 0xbe,
  0x94, 0xd9, 0x74, 0xbe, 0x1c, 0xf5, 0x99, 0x3e, 0x4f, 0x73, 0x75, 0xbd,
  0xbc, 0x37, 0xb0, 0xbe, 0x25, 0x5d, 0x61, 0x3f, 0xeb, 0x5f, 0xf0, 0x3e,
  0xdf, 0x89, 0x26, 0xbf, 0xe7, 0xce, 0x07, 0x3e, 0x0f, 0x8d, 0xb3, 0x3e,
  0xc9, 0x61, 0x8f, 0x3f, 0xcc, 0x1d, 0xcc, 0x3d, 0x1a, 0xd9, 0x07, 0x3f,
  0x5c, 0x91, 0x26, 0xbf, 0xab, 0x83, 0x20, 0x3f, 0x54, 0x2d, 0x54, 0x3f,
  0x6f, 0x97, 0x31, 0x3f, 0x7a, 0xeb, 0x8f, 0x3f, 0x23, 0x23, 0x2c, 0x3d,
  0x9b, 0x55, 0xc4, 0x3d, 0xf2, 0x6e, 0x6f, 0xbe, 0x8a, 0xae, 0xd4, 0xbe,
  0xe8, 0xfa, 0x4e, 0xbf, 0x54, 0x05, 0x1f, 0xbf, 0xdf, 0x6f, 0x10, 0x3f,
  0x19, 0x3a, 0x72, 0x3f, 0x4b, 0x45, 0x20, 0xbf, 0xae, 0x66, 0xa8, 0x3c,
  0xb6, 0x98, 0x47, 0x3f, 0x36, 0xc6, 0x68, 0xbe, 0x99, 0xde, 0x50, 0x3f,
  0xc0, 0xca, 0xdf, 0x3e, 0x0c, 0x1f, 0x52, 0x3e, 0xd3, 0x2d, 0x29, 0x3f,
  0xaa, 0x06, 0x06, 0xbf, 0x2b, 0xba, 0xd2, 0xbe, 0xb2, 0xc3, 0xaf, 0xbe,
  0x66, 0xbf, 0x75, 0x3f, 0xe7, 0x22, 0x80, 0x3f, 0xf7, 0x26, 0x89, 0xbe,
  0x75, 0xa1, 0xd7, 0xbe, 0x99, 0xae, 0x3c, 0xbf, 0x8a, 0xae, 0x57, 0x3e,
  0x23, 0xca, 0x84, 0x3e, 0x1d, 0x27, 0x76, 0xbe, 0x02, 0x15, 0xd6, 0xbe,
  0x99, 0xf0, 0x9d, 0x3e, 0xfa, 0x68, 0x58, 0x3f, 0x27, 0x44, 0xa4, 0x3e,
  0x33, 0x1f, 0x06, 0xbf, 0x24, 0xd9, 0x31, 0x3f, 0x96, 0x6c, 0x29, 0xbf,
  0xa6, 0x9c, 0x41, 0xbf, 0xed, 0x4f, 0x3c, 0x3e, 0xb3, 0xa5, 0x86, 0xbf,
  0x89, 0x37, 0xf5, 0xbd, 0x18, 0xb0, 0xaa, 0xbe, 0x27, 0xcf, 0x07, 0x3f,
  0x33, 0xdd, 0x71, 0x3d, 0xaa, 0x06, 0x06, 0x3f, 0x49, 0xcd, 0x86, 0x3d,
  0xa5, 0x7e, 0x3f, 0x3f, 0x97, 0xf1, 0x18, 0x3d, 0x11, 0x50, 0x74, 0x3e,
  0xf1, 0x4f, 0xc9, 0xbe, 0xfa, 0xeb, 0x86, 0x3e, 0xdf, 0x0a, 0x9a, 0x3e,
  0xcb, 0xf0, 0x2d, 0xbf, 0xc4, 0x27, 0xdc, 0xbe, 0xbc, 0xb2, 0x87, 0x3c,
  0xbb, 0x22, 0x33, 0xbf, 0x6a, 0xf2, 0xff, 0xff, 0x04, 0x00, 0x00, 0x00,
  0x00, 0x08, 0x00, 0x00, 0xfe, 0xb7, 0x6f, 0xbf, 0xd3, 0xb8, 0xd8, 0x3e,
  0x12, 0x09, 0x5f, 0xbd, 0x50, 0xbb, 0x92, 0x3f, 0x10, 0xa3, 0x8d, 0xbe,
  0x60, 0xfb, 0x09, 0x3f, 0xca, 0x9f, 0x34, 0xbe, 0x1c, 0xdf, 0xe1, 0x3e,
  0xb4, 0xeb, 0x70, 0xbd, 0x59, 0x2b, 0x49, 0xbe, 0x10, 0xb2, 0x6e, 0xbe,
  0x19, 0x96, 0xdf, 0xbf, 0x0b, 0x74, 0x5c, 0x3e, 0x57, 0xd4, 0xa9, 0x3e,
  0x23, 0xe3, 0x32, 0x3f, 0xde, 0x38, 0x62, 0xbf, 0xc4, 0x7b, 0x5e, 0xbe,
  0xea, 0x56, 0x19, 0x3e, 0xae, 0x04, 0x5b, 0xbe, 0x47, 0xdd, 0xf1, 0x3e,
  0xaa, 0x48, 0x36, 0xbe, 0x28, 0xb0, 0x6d, 0x3d, 0x7d, 0x67, 0xcb, 0x3e,
  0x14, 0xe1, 0xfd, 0xbe, 0x51, 0xa6, 0xc9, 0xbe, 0xc4, 0x97, 0xc7, 0x3e,
  0x5f, 0xcb, 0xeb, 0x3c, 0xc7, 0x7c, 0x63, 0x3f, 0x71, 0x40, 0x12, 0xbf,
  0x04, 0x04, 0x22, 0xbf, 0xfc, 0x37, 0x94, 0xbe, 0xb6, 0xac, 0x8c, 0x3f,
  0xfc, 0x63, 0x5b, 0x3f, 0x02, 0xbf, 0xd6, 0xbd, 0x8e, 0x4b, 0xac, 0xbe,
  0x6e, 0x99, 0x87, 0x3c, 0x18, 0xeb, 0x06, 0x3f, 0xbd, 0xa7, 0x70, 0x3f,
  0x05, 0x2c, 0x47, 0x3f, 0x5f, 0x52, 0x87, 0xbd, 0x7e, 0x57, 0x2b, 0x3f,
  0x01, 0x19, 0xbf, 0xbe, 0xa1, 0x00, 0x09, 0x3f, 0x29, 0x33, 0x66, 0xbe,
  0x80, 0x75, 0xca, 0x3d, 0x14, 0x84, 0xf4, 0xbd, 0x43, 0x0b, 0x90, 0x3f,
  0x12, 0x1d, 0xd4, 0x3e, 0xad, 0x3a, 0xa1, 0xbe, 0xcf, 0x4e, 0x70, 0x3f,
  0x77, 0xa4, 0x9a, 0x3d, 0x88, 0xe9, 0xe8, 0x3e, 0x34, 0x07, 0x4e, 0xbe,
  0x20, 0xf7, 0x9b, 0x3f, 0xf7, 0x85, 0x5b, 0x3e, 0xed, 0x45, 0x7d, 0xbd,
  0x65, 0x9c, 0x14, 0x3f, 0x2a, 0xa6, 0x48, 0x3f, 0xc2, 0x53, 0x4b, 0x3e,
  0x34, 0xad, 0x2f, 0x3f, 0xef, 0x10, 0x96, 0x3f, 0xa6, 0x2b, 0x84, 0xbe,
  0xa1, 0x1c, 0xd5, 0xbe, 0x3b, 0x60, 0x22, 0x3e, 0xd5, 0x07, 0xb0, 0x3e,
  0xb2, 0x4d, 0x4e, 0x3d, 0x81, 0xf8, 0x08, 0x3e, 0xc2, 0x3b, 0x0f, 0x3f,
  0x8b, 0xb9, 0x30, 0x3f, 0x50, 0x09, 0x46, 0xbc, 0xe3, 0x79, 0x7f, 0x3e,
  0x09, 0x80, 0xe2, 0x3e, 0x0e, 0x49, 0x62, 0x3f, 0xa5, 0x74, 0xc8, 0x3d,
  0xb1, 0xc1, 0xd1, 0x3e, 0xa7, 0x6b, 0x2e, 0x3e, 0xdf, 0xb9, 0x30, 0xbc,
  0x47, 0x59, 0xbd, 0xbd, 0x72, 0x92, 0xd7, 0xbe, 0x7d, 0xb7, 0xf8, 0x3d,
  0x9c, 0x81, 0xad, 0xbf, 0x4e, 0xa1, 0x80, 0xbd, 0x23, 0xa7, 0x93, 0xbe,
  0x75, 0x35, 0xc1, 0x3e, 0x14, 0xa5, 0x8c, 0x3e, 0x46, 0x60, 0xbe, 0x3f,
  0xbb, 0x2f, 0x3a, 0x3e, 0x7e, 0x22, 0x3b, 0x3d, 0xf2, 0xf1, 0x23, 0x3d,
  0x1f, 0x9a, 0x84, 0xbc, 0x31, 0x6b, 0x05, 0xbe, 0x73, 0xac, 0x9a, 0xbf,
  0x5a, 0xd9, 0x4b, 0xbb, 0xaf, 0xaa, 0xae, 0x3f, 0xcf, 0xac, 0x28, 0x3f,
  0xa7, 0xa1, 0x3b, 0xbf, 0x83, 0xf1, 0x19, 0x3f, 0xdf, 0x88, 0x15, 0x3f,
  0x9f, 0x89, 0xd3, 0xbe, 0xcb, 0x83, 0xbb, 0x3c, 0x21, 0xc7, 0x1b, 0xbf,
  0x33, 0x27, 0x08, 0xbf, 0x6e, 0x07, 0x01, 0x3d, 0x44, 0xfd, 0x9f, 0xbe,
  0x8e, 0x91, 0xbd, 0xbe, 0xdd, 0xff, 0xc9, 0x3e, 0x72, 0x98, 0x3c, 0x3f,
  0xe4, 0x31, 0x48, 0x3e, 0xcc, 0x58, 0x83, 0x3f, 0x90, 0xb0, 0x1a, 0x3d,
  0x3f, 0xa0, 0x9f, 0x3e, 0x78, 0x99, 0xd0, 0x3d, 0xce, 0x61, 0x40, 0xbe,
  0xd0, 0xfd, 0x3b, 0x3e, 0xa7, 0xb2, 0x09, 0xbe, 0xc4, 0xa8, 0x36, 0xbe,
  0x0e, 0x3d, 0xd7, 0x3b, 0xb7, 0x76, 0xdf, 0xbc, 0x6c, 0xa5, 0x09, 0xbf,
  0xd2, 0x27, 0x76, 0xbe, 0x5c, 0xe1, 0x52, 0xbe, 0xcd, 0x53, 0xc9, 0x3f,
  0x2b, 0x85, 0xb4, 0xbe, 0x4c, 0x1b, 0x78, 0xbf, 0x07, 0xc3, 0x81, 0x3e,
  0x12, 0xfd, 0x58, 0xbe, 0x4b, 0x4f, 0x21, 0xbf, 0x6b, 0x4c, 0x65, 0x3d,
  0x29, 0xe2, 0x68, 0x3d, 0x12, 0x02, 0x6a, 0xbf, 0x98, 0x2a, 0x0f, 0xbf,
  0x04, 0xd3, 0x63, 0xbf, 0xf8, 0x68, 0x0b, 0xbf, 0x37, 0xcd, 0x09, 0x3f,
  0x5e, 0xad, 0x77, 0xbb, 0x41, 0xac, 0x6f, 0xbf, 0x9b, 0xc8, 0x9b, 0xbe,
  0xed, 0x5b, 0x0b, 0xbf, 0xc3, 0x39, 0xea, 0x3c, 0x3b, 0xc5, 0xf0, 0xbf,
  0xe8, 0x58, 0x2d, 0x3f, 0xf8, 0x84, 0x4e, 0xbe, 0xf3, 0x69, 0x34, 0xbf,
  0xb8, 0xbe, 0x7d, 0x3e, 0x3b, 0x8a, 0x05, 0x3f, 0x91, 0x98, 0xf5, 0x3c,
  0x95, 0xde, 0x05, 0x3f, 0xf6, 0x41, 0x71, 0xbf, 0x8d, 0x15, 0x51, 0x3f,
  0xa1, 0x3a, 0xb0, 0xbf, 0x93, 0x76, 0x2e, 0xbf, 0xde, 0xc6, 0x2d, 0x3d,
  0x4a, 0x2f, 0x33, 0x3e, 0x78, 0xc0, 0x94, 0x3f, 0x85, 0x2b, 0x81, 0xbd,
  0xf7, 0xff, 0x74, 0x3e, 0x4c, 0x71, 0xb8, 0x3e, 0xf2, 0x62, 0x92, 0xbf,
  0xe7, 0xbd, 0xe3, 0x3e, 0xce, 0xe8, 0x07, 0xbf, 0x5e, 0x66, 0x88, 0x3e,
  0x11, 0x16, 0x57, 0x3f, 0xfe, 0x87, 0xa8, 0x3f, 0x36, 0xb2, 0xf1, 0xbe,
  0xcf, 0xd5, 0xe3, 0xbe, 0x4b, 0x02, 0x46, 0x3f, 0x77, 0xba, 0x7b, 0x3f,
  0xec, 0x0b, 0x38, 0x3d, 0xa2, 0x03, 0xb4, 0x3f, 0x9c, 0x32, 0x7e, 0xbe,
  0x4e, 0x7a, 0x09, 0x3f, 0xb9, 0x35, 0x2d, 0xbd, 0xb6, 0xae, 0x87, 0x3e,
  0x3e, 0x65, 0x57, 0xbf, 0x5e, 0xe3, 0xa4, 0x3e, 0xc2, 0xa2, 0x1c, 0xbf,
  0x85, 0xf6, 0x73, 0xbf, 0x92, 0x13, 0xa3, 0x3f, 0x0f, 0x62, 0xad, 0x3e,
  0x21, 0x1a, 0x89, 0x3d, 0x22, 0x15, 0x7e, 0xbe, 0xe1, 0xc6, 0x11, 0x3f,
  0x4f, 0x5a, 0xbb, 0x3e, 0x25, 0x98, 0x93, 0xbe, 0x99, 0xfd, 0x20, 0xbb,
  0xc7, 0x49, 0x9c, 0x3f, 0xf1, 0x4b, 0x19, 0xbe, 0x4d, 0xa6, 0x26, 0xbf,
  0xbe, 0x42, 0x84, 0x3e, 0xff, 0x7f, 0x8e, 0xbc, 0x49, 0x34, 0x99, 0x3e,
  0x9e, 0x0b, 0x73, 0x3c, 0x09, 0x51, 0x94, 0xbe, 0x7d, 0x9e, 0xa9, 0xbe,
  0x8d, 0xfc, 0x9b, 0x3e, 0x8e, 0x28, 0xc6, 0xbe, 0x14, 0xe7, 0x69, 0xbe,
  0xf6, 0x72, 0x3d, 0x3f, 0x12, 0x1a, 0x4e, 0xbe, 0xd5, 0xb9, 0xab, 0xbe,
  0x37, 0xf0, 0xf9, 0xbd, 0x76, 0xeb, 0x4a, 0x3f, 0xb5, 0x6d, 0x77, 0xbf,
  0xa2, 0x03, 0xbe, 0xbe, 0x7a, 0x94, 0xd5, 0x3d, 0xa2, 0x23, 0x4f, 0x3e,
  0xbf, 0xb1, 0x48, 0x3f, 0xfe, 0x64, 0x67, 0xbf, 0x38, 0x69, 0x78, 0xbe,
  0xa8, 0xa1, 0x8b, 0xbd, 0x99, 0x30, 0x6d, 0x3f, 0x81, 0x04, 0xdd, 0xbe,
  0xb9, 0x77, 0xc6, 0x3c, 0x69, 0xeb, 0x96, 0xbf, 0xb3, 0x95, 0xc4, 0x3e,
  0xb9, 0xb3, 0xeb, 0x3e, 0xd5, 0xcd, 0xa7, 0x3f, 0x55, 0xa7, 0x8e, 0x3f,
  0xca, 0x5d, 0x87, 0xbe, 0xfb, 0x58, 0x2b, 0xbd, 0x12, 0xf4, 0xad, 0x3e,
  0xee, 0xfb, 0x54, 0xbf, 0xaf, 0xd2, 0x00, 0x3f, 0xe7, 0x0d, 0x16, 0x3f,
  0x62, 0x68, 0x8f, 0xbd, 0xe3, 0x39, 0x8d, 0xbd, 0x51, 0xc1, 0x65, 0x3e,
  0xc9, 0x36, 0x3e, 0x3e, 0xb9, 0x0b, 0xbe, 0x3e, 0x68, 0x19, 0xba, 0x3e,
  0xcd, 0x40, 0x9a, 0x3f, 0x44, 0xf2, 0x62, 0x3f, 0xdd, 0x3c, 0xee, 0x3e,
  0x22, 0xd7, 0xac, 0x3c, 0x44, 0x6d, 0x38, 0x3f, 0x2f, 0x4c, 0x19, 0xbe,
  0xb8, 0x7f, 0xc2, 0xbd, 0x8b, 0x2c, 0x5e, 0xbf, 0x18, 0x3c, 0x22, 0x3f,
  0x0f, 0x34, 0xfc, 0xbe, 0xe2, 0xcf, 0xa6, 0x3f, 0xca, 0x10, 0x8e, 0xbf,
  0x75, 0x19, 0x2a, 0xbf, 0x0e, 0xb4, 0xac, 0x3f, 0x3d, 0xec, 0xa1, 0xbe,
  0x15, 0x2d, 0x4a, 0xbf, 0x89, 0xec, 0x6e, 0xbe, 0x05, 0xc0, 0x37, 0xbf,
  0xaf, 0xaa, 0x25, 0xbf, 0xa4, 0xf5, 0xa7, 0xbc, 0x9a, 0x48, 0x4c, 0x3f,
  0xb3, 0x08, 0x10, 0xbf, 0x7e, 0x49, 0x40, 0xbf, 0x47, 0x59, 0x48, 0xbf,
  0x63, 0xd8, 0x92, 0x3d, 0x6b, 0xbe, 0x62, 0x3f, 0x0e, 0x62, 0xa0, 0xbf,
  0xbc, 0x48, 0x16, 0x3f, 0xe4, 0x3d, 0xde, 0x3e, 0x03, 0x23, 0xcf, 0x3e,
  0xae, 0xcb, 0xba, 0xbe, 0xce, 0xca, 0xae, 0x3f, 0x72, 0x03, 0xb4, 0x3f,
  0xaf, 0x3f, 0x52, 0xbc, 0xd2, 0xa3, 0x87, 0x3f, 0xfb, 0x32, 0x1b, 0x3e,
  0xaa, 0x22, 0x0c, 0x3e, 0xef, 0x19, 0x4a, 0x3f, 0x33, 0xcb, 0x8f, 0x3f,
  0xe4, 0x4d, 0x08, 0xbf, 0x33, 0x27, 0x88, 0x3f, 0x40, 0xd4, 0xd1, 0xbd,
  0xd4, 0x5e, 0x53, 0x3f, 0xfd, 0xb6, 0xa0, 0xbf, 0x95, 0xa6, 0x35, 0xbf,
  0x0f, 0x56, 0xaa, 0xbd, 0x8a, 0xa4, 0x4d, 0xbd, 0x9e, 0xa2, 0x77, 0x3f,
  0x87, 0xa9, 0x89, 0xbf, 0xfc, 0x9f, 0xf5, 0xbe, 0xe0, 0x8e, 0x4e, 0xbe,
  0xc7, 0xac, 0x39, 0x3f, 0xff, 0xe6, 0x3f, 0x3d, 0x30, 0xb0, 0x15, 0xbf,
  0xee, 0x7c, 0x2e, 0xbe, 0x15, 0x15, 0x3d, 0x3f, 0xcf, 0x95, 0x14, 0x3f,
  0x6c, 0x47, 0x85, 0xbe, 0xe5, 0xbc, 0xe2, 0x3f, 0xfe, 0xf9, 0x78, 0xbf,
  0xb1, 0x54, 0x66, 0xbe, 0xea, 0x00, 0xb9, 0xbf, 0x3e, 0xe7, 0x30, 0x3d,
  0x5d, 0x1e, 0x8e, 0xbe, 0x58, 0x54, 0x6a, 0xbf, 0x00, 0x3d, 0x33, 0xbf,
  0x67, 0xaa, 0x95, 0xbe, 0xa8, 0xb7, 0x4e, 0x3d, 0x23, 0xc6, 0x41, 0xbf,
  0xfc, 0xbe, 0xcd, 0xbf, 0xac, 0x49, 0x98, 0x3f, 0x86, 0xd4, 0x8b, 0xbf,
  0x8d, 0xdc, 0xf1, 0x3e, 0xfe, 0x4e, 0xec, 0x3e, 0x10, 0xf2, 0x38, 0xbe,
  0xbe, 0x26, 0x6d, 0xbd, 0xb5, 0x63, 0x74, 0xbe, 0xe8, 0x74, 0x95, 0xbf,
  0x69, 0x4b, 0xe4, 0x3e, 0xe2, 0xe0, 0x6f, 0xbf, 0xca, 0xdb, 0x60, 0xbf,
  0x52, 0x66, 0x0f, 0xbe, 0xb5, 0x9e, 0xe9, 0xbe, 0x7f, 0xca, 0xfc, 0x3d,
  0x30, 0x06, 0x5a, 0xbf, 0x56, 0xbc, 0xca, 0xbe, 0xcc, 0x4e, 0x0d, 0x3f,
  0xad, 0xd3, 0x78, 0x3f, 0xe1, 0x0f, 0x55, 0x3f, 0x39, 0x50, 0x65, 0xbd,
  0xd0, 0x4b, 0xdc, 0xbd, 0x20, 0x4f, 0x2c, 0x3f, 0x47, 0x9b, 0x2d, 0x3f,
  0x0a, 0x87, 0xb5, 0xbd, 0xc2, 0xa5, 0x31, 0x3d, 0x15, 0xa1, 0x91, 0x3e,
  0xa5, 0x93, 0x60, 0x3f, 0x42, 0xab, 0x1c, 0xbe, 0x93, 0x99, 0xde, 0x3e,
  0xfd, 0x97, 0xb1, 0x3f, 0xfb, 0xde, 0x18, 0x3f, 0x78, 0x23, 0x40, 0x3f,
  0x71, 0x23, 0x40, 0x3e, 0x36, 0x60, 0xaa, 0x3d, 0x1d, 0xf4, 0x81, 0xbf,
  0x1d, 0xeb, 0x0d, 0x3f, 0x72, 0xec, 0xb1, 0x3e, 0x82, 0x17, 0xa8, 0xbe,
  0xb5, 0x50, 0x7f, 0x3e, 0xff, 0x25, 0x3b, 0x3f, 0xac, 0x24, 0x0a, 0x3f,
  0x56, 0x2a, 0x54, 0x3d, 0x49, 0x40, 0xf3, 0x3e, 0x93, 0x91, 0x36, 0x3f,
  0x5a, 0xff, 0x38, 0xbe, 0xf9, 0x34, 0x83, 0x3e, 0xf8, 0xae, 0x41, 0x3f,
  0x3d, 0x44, 0xd1, 0xbd, 0x1d, 0x47, 0xc3, 0x3e, 0x17, 0x01, 0x54, 0x3e,
  0x84, 0xb6, 0xd7, 0xbe, 0x8b, 0x01, 0x7c, 0xbe, 0xfb, 0x73, 0x9c, 0x3e,
  0xb7, 0x2a, 0x50, 0x3f, 0xd8, 0x70, 0xe6, 0x3c, 0xb4, 0xc8, 0x1a, 0xbb,
  0x0e, 0x62, 0x9f, 0x3f, 0x59, 0x70, 0xfa, 0xbd, 0xcf, 0x86, 0xa7, 0x3d,
  0x5f, 0x01, 0xfd, 0x3e, 0x75, 0xe6, 0xd3, 0xbd, 0xaa, 0xf0, 0x1e, 0x3e,
  0x0b, 0xdc, 0xc3, 0x3e, 0x49, 0x7f, 0x9a, 0xbe, 0xb0, 0x47, 0x38, 0xbd,
  0x54, 0xcd, 0x47, 0x3e, 0x6c, 0x79, 0x80, 0x3f, 0xa6, 0xb2, 0x0b, 0x3e,
  0x9b, 0x79, 0x27, 0xbe, 0x39, 0xf4, 0x62, 0xbe, 0x67, 0xa3, 0x21, 0xbf,
  0x17, 0x6f, 0x74, 0x3f, 0x1b, 0xc0, 0x92, 0x3e, 0x07, 0xcb, 0x49, 0xbd,
  0x5b, 0x8c, 0x91, 0x3f, 0xf6, 0x07, 0xf5, 0xbe, 0x64, 0x96, 0x5d, 0xbe,
  0x2f, 0xa3, 0x9b, 0xbe, 0x07, 0x6e, 0x30, 0xbe, 0x82, 0x89, 0xb4, 0x3e,
  0x15, 0xbf, 0x86, 0xbe, 0xee, 0x8e, 0x9f, 0x3e, 0x62, 0x54, 0xb4, 0x3e,
  0xf0, 0xd0, 0x8f, 0x3f, 0x6f, 0xbd, 0x81, 0xbe, 0x63, 0x5b, 0xaf, 0xbe,
  0x9a, 0x1b, 0xea, 0xbc, 0x1c, 0x7a, 0x88, 0x3f, 0x44, 0x9a, 0xab, 0xbe,
  0x24, 0xa0, 0x35, 0x3e, 0x0e, 0x75, 0xce, 0x3f, 0x02, 0xf5, 0x06, 0xbc,
  0xc6, 0x8b, 0xcf, 0x3e, 0x50, 0x3b, 0xcc, 0x3e, 0x8f, 0x67, 0x79, 0x3f,
  0x25, 0x96, 0x57, 0x3e, 0x1e, 0xfc, 0xa3, 0xbe, 0x2c, 0xfc, 0x53, 0x3f,
  0x6a, 0x4d, 0x88, 0xbf, 0x18, 0x4c, 0x14, 0xbf, 0x5e, 0xce, 0x20, 0x3c,
  0x84, 0x9d, 0xbc, 0xbe, 0xf6, 0xf2, 0x9d, 0xbf, 0xb5, 0x06, 0x76, 0xbe,
  0x99, 0x51, 0x35, 0xbf, 0x15, 0xd3, 0x56, 0xbf, 0x32, 0xda, 0x50, 0x3f,
  0x1a, 0x72, 0x5a, 0xbf, 0x74, 0xab, 0x81, 0xbf, 0xbb, 0xaa, 0x1d, 0xbf,
  0xb6, 0x57, 0x16, 0x3f, 0x16, 0x88, 0x5b, 0xbf, 0x16, 0xbc, 0x4f, 0xbd,
  0xc7, 0xe7, 0x26, 0xbf, 0x58, 0xc8, 0x32, 0xbe, 0xcd, 0x81, 0x7b, 0x3f,
  0x78, 0x8d, 0xc6, 0xbe, 0x49, 0x4b, 0x0f, 0xbf, 0x7a, 0xec, 0xa9, 0xbd,
  0xbe, 0xd0, 0x96, 0x3f, 0xb2, 0xd2, 0xae, 0x3e, 0xda, 0x45, 0x31, 0x3f,
  0x6e, 0x03, 0xc2, 0x3e, 0x9f, 0x1b, 0x05, 0x3f, 0x45, 0x9a, 0xc2, 0x3d,
  0x4b, 0x28, 0xf0, 0xbc, 0xc6, 0x06, 0xae, 0x3c, 0x02, 0x58, 0x29, 0xbf,
  0x61, 0x8a, 0x6e, 0x3f, 0x2a, 0xd2, 0x73, 0xbe, 0x85, 0x93, 0xd1, 0x3e,
  0xa8, 0x7a, 0x54, 0xbe, 0x0b, 0xb5, 0x12, 0x3c, 0xc6, 0x79, 0x53, 0xbf,
  0x8a, 0xb7, 0x82, 0x3f, 0x2c, 0x8b, 0xc9, 0x3e, 0xe6, 0x2f, 0x8c, 0x3f,
  0x5f, 0x78, 0x9c, 0xbf, 0x23, 0xd0, 0x36, 0xbf, 0x89, 0xc7, 0x29, 0x3f,
  0x5a, 0xbe, 0x97, 0x3d, 0x44, 0xd3, 0x01, 0xbe, 0xfe, 0xfe, 0x1e, 0xbf,
  0xe4, 0xda, 0x87, 0x3e, 0x6a, 0x96, 0x67, 0xbf, 0x7c, 0xef, 0xc6, 0x3d,
  0xfe, 0x42, 0x77, 0x3f, 0x5e, 0x82, 0x08, 0xbe, 0xe5, 0x07, 0x7e, 0xbe,
  0x33, 0xc0, 0x9a, 0xbe, 0x6d, 0x05, 0xdd, 0x3d, 0x93, 0x2a, 0x9d, 0x3e,
  0xc3, 0xf1, 0xca, 0x3e, 0x92, 0x05, 0x72, 0x3f, 0x07, 0x6d, 0xef, 0x3d,
  0xf5, 0x25, 0x20, 0xbf, 0xd0, 0x9a, 0xde, 0x3d, 0x75, 0xc6, 0xe0, 0x3d,
  0x63, 0x2f, 0x4c, 0x3e, 0x39, 0x02, 0xb7, 0x3e, 0x42, 0xd2, 0xc5, 0x3d,
  0x7b, 0xaa, 0x8c, 0xbe, 0xf8, 0x01, 0xca, 0xbe, 0x84, 0x4a, 0x99, 0x3f,
  0x63, 0xfd, 0xd5, 0x3e, 0xed, 0x98, 0xa7, 0xbe, 0xe6, 0xeb, 0x74, 0x3e,
  0xf9, 0x2d, 0x8c, 0x3e, 0x54, 0xa8, 0x8f, 0x3f, 0x3c, 0x92, 0x50, 0xbf,
  0xff, 0xd1, 0x4e, 0x3e, 0xd5, 0xe7, 0x69, 0x3f, 0xaa, 0x74, 0x55, 0x3f,
  0xfb, 0xbd, 0x9c, 0x3e, 0xbb, 0x4a, 0xaa, 0x3e, 0xc9, 0xb7, 0x29, 0xbf,
  0xde, 0xe5, 0x96, 0xbe, 0xed, 0xf8, 0x49, 0x3e, 0x0a, 0x22, 0x89, 0x3f,
  0xb6, 0x72, 0x94, 0x3d, 0x3b, 0x22, 0xbd, 0x3f, 0x68, 0x22, 0xf2, 0xbd,
  0x9e, 0xc0, 0xfc, 0x3d, 0xa4, 0x60, 0x27, 0x3e, 0x6c, 0x84, 0x69, 0x3f,
  0xf8, 0x9e, 0x15, 0xbf, 0xf3, 0x37, 0x8f, 0xbf, 0x08, 0x8d, 0x3e, 0x3e,
  0x97, 0x31, 0x03, 0xbe, 0x1a, 0xb5, 0xd4, 0x3d, 0xcd, 0xac, 0x1f, 0xbe,
  0xb4, 0x64, 0x30, 0xc0, 0xf4, 0xae, 0x87, 0xbe, 0x70, 0xd2, 0xec, 0x3e,
  0x89, 0xa8, 0x03, 0x40, 0x60, 0x93, 0x05, 0x3f, 0x19, 0x1c, 0x1e, 0xbf,
  0x0c, 0x6c, 0xd5, 0x3d, 0xac, 0xb0, 0xd0, 0xbe, 0x43, 0x3a, 0xa5, 0x3f,
  0x06, 0xb3, 0xe2, 0xbd, 0x93, 0xce, 0xd4, 0xbf, 0xab, 0x57, 0xe6, 0xbd,
  0xbb, 0x3c, 0xa8, 0xbe, 0x75, 0xf8, 0x18, 0xbf, 0x38, 0x38, 0x86, 0x3d,
  0xd0, 0xcb, 0x17, 0x3f, 0xcc, 0xf3, 0x86, 0xbf, 0xa4, 0xfe, 0x53, 0x39,
  0x87, 0xfd, 0x1f, 0xbe, 0x60, 0x59, 0x66, 0x3f, 0x0f, 0x91, 0xc1, 0x3d,
  0x76, 0xfa, 0xff, 0xff, 0x04, 0x00, 0x00, 0x00, 0x20, 0x00, 0x00, 0x00,
  0xa0, 0x1d, 0x2a, 0xbe, 0xbc, 0xe9, 0xd6, 0x3f, 0x1c, 0x27, 0x9b, 0xbf,
  0x9c, 0xfe, 0xbe, 0x3f, 0xb2, 0x41, 0x81, 0xbf, 0x7d, 0x1a, 0x86, 0x3f,
  0x97, 0x10, 0x86, 0x3f, 0x2e, 0x53, 0xd1, 0x3f, 0xa2, 0xfa, 0xff, 0xff,
  0x04, 0x00, 0x00, 0x00, 0x20, 0x01, 0x00, 0x00, 0xd1, 0x9b, 0xdf, 0xbf,
  0x70, 0x4a, 0x93, 0xbf, 0xd3, 0x21, 0x4d, 0xbf, 0x0c, 0x26, 0xf9, 0x3d,
  0x55, 0x68, 0x12, 0x3f, 0x98, 0xe4, 0x85, 0x3f, 0x80, 0xc2, 0x71, 0x3f,
  0xd4, 0xa4, 0xf6, 0xbe, 0x1d, 0x72, 0x90, 0xbe, 0xc9, 0x8a, 0x75, 0x3f,
  0x27, 0xa0, 0x89, 0x3f, 0x5f, 0xd5, 0xe9, 0xbd, 0x19, 0xa3, 0xce, 0x3e,
  0x02, 0x82, 0x60, 0xbf, 0x24, 0xc8, 0xbe, 0x3f, 0xc3, 0x66, 0xae, 0xbe,
  0x39, 0x85, 0x4f, 0xbf, 0xff, 0xa9, 0x0e, 0xbf, 0xb7, 0x96, 0xbf, 0xbf,
  0x3c, 0x64, 0xcd, 0xbe, 0x0c, 0xdf, 0x67, 0xbe, 0x6f, 0xe1, 0x70, 0xbf,
  0x39, 0xbe, 0x59, 0xbf, 0xda, 0x04, 0xe0, 0x3d, 0x5a, 0x26, 0x3a, 0xbf,
  0x0e, 0x91, 0xbd, 0x3e, 0x6a, 0x5c, 0xab, 0xbe, 0x4c, 0x71, 0x96, 0x3e,
  0x77, 0xae, 0x8c, 0xbd, 0x78, 0x4e, 0x74, 0x3f, 0xc8, 0xd8, 0xe3, 0xbe,
  0xce, 0xc5, 0x9b, 0xbe, 0x87, 0x71, 0xc8, 0x3e, 0x25, 0x65, 0xe3, 0xbe,
  0x07, 0x3f, 0x72, 0xbe, 0x74, 0x29, 0x44, 0x3f, 0xd8, 0xaa, 0xfb, 0x3e,
  0x6f, 0xf8, 0x47, 0x3f, 0xe9, 0xe1, 0xa1, 0x3e, 0xfb, 0x05, 0xc6, 0xbf,
  0x6e, 0x06, 0xac, 0x3d, 0xae, 0xa8, 0x2f, 0x3f, 0x2d, 0xfc, 0x6a, 0x3f,
  0x59, 0xea, 0x60, 0x3f, 0x1f, 0x4d, 0x2c, 0x3e, 0xfd, 0x6a, 0x16, 0x3e,
  0x39, 0x1a, 0x02, 0x3f, 0x02, 0x4c, 0x33, 0xbd, 0xe3, 0x7f, 0xfa, 0xbd,
  0x69, 0x9b, 0xfa, 0xbe, 0x54, 0x82, 0xef, 0xbe, 0x25, 0xf4, 0x21, 0xbd,
  0xa5, 0x0a, 0xb9, 0x39, 0xff, 0x3a, 0x9e, 0xbd, 0x86, 0xd8, 0x78, 0xbf,
  0xaa, 0x65, 0x39, 0x3e, 0xa9, 0x5b, 0x0b, 0xbf, 0xdb, 0xee, 0x6a, 0xbe,
  0x3e, 0x1b, 0x8e, 0x3f, 0xf0, 0xcd, 0x9d, 0x3e, 0x58, 0xff, 0x69, 0x3e,
  0xe5, 0xff, 0x08, 0xbf, 0x54, 0x2a, 0x07, 0x3e, 0x6c, 0x40, 0xa8, 0x3d,
  0x7f, 0x95, 0xa7, 0xbf, 0xca, 0xa2, 0xb8, 0xbf, 0x70, 0xd3, 0xd0, 0xbf,
  0x46, 0xc8, 0x60, 0xbd, 0x4d, 0x34, 0xb3, 0x3e, 0x8d, 0xe2, 0x93, 0x3f,
  0xa3, 0x07, 0xcc, 0x3e, 0x34, 0x55, 0x9f, 0x3e, 0xce, 0xfb, 0xff, 0xff,
  0x04, 0x00, 0x00, 0x00, 0x40, 0x00, 0x00, 0x00, 0x76, 0xdc, 0x49, 0xbf,
  0x4a, 0x4b, 0xd0, 0xbe, 0x5d, 0x34, 0x07, 0x3f, 0xbe, 0xcf, 0x3d, 0x3f,
  0x0a, 0x46, 0x10, 0x3f, 0x5b, 0x39, 0xc5, 0xbd, 0x61, 0xfc, 0x32, 0xbf,
  0x4c, 0xcc, 0x33, 0xbf, 0x81, 0xad, 0x35, 0xbf, 0x7f, 0x46, 0x8a, 0xbf,
  0x5f, 0xc6, 0x32, 0xbf, 0x4a, 0x6a, 0x81, 0xbf, 0xd8, 0x1f, 0x9f, 0x3e,
  0xe9, 0xf5, 0x22, 0x3e, 0xfc, 0x90, 0x36, 0xbf, 0x19, 0x57, 0x0f, 0x3f,
  0x1a, 0xfc, 0xff, 0xff, 0x04, 0x00, 0x00, 0x00, 0x40, 0x02, 0x00, 0x00,
  0xda, 0x10, 0x58, 0xbe, 0xfe, 0x3c, 0x93, 0xbf, 0x1e, 0xc7, 0x8b, 0x3f,
  0xca, 0x64, 0xfc, 0x3e, 0x3f, 0x88, 0xa6, 0x3e, 0x7f, 0x53, 0xf2, 0xbe,
  0x36, 0x29, 0x6f, 0x3e, 0x2d, 0x7a, 0xdb, 0x3f, 0xca, 0x81, 0x9d, 0xbe,
  0x59, 0xc7, 0x0b, 0x3f, 0xdc, 0xa9, 0x70, 0xbe, 0xef, 0xb6, 0x5c, 0xbe,
  0x84, 0xf9, 0x2e, 0x3f, 0xaa, 0x24, 0x73, 0xbe, 0xd8, 0xbe, 0xb1, 0x3e,
  0xf6, 0x00, 0x20, 0x3e, 0x63, 0x61, 0xdc, 0xbe, 0xd6, 0xea, 0xce, 0x3e,
  0x9d, 0x9a, 0x67, 0x3f, 0x5a, 0x6a, 0xea, 0x3d, 0x3c, 0x1e, 0x24, 0x3f,
  0x96, 0xe8, 0x89, 0x3c, 0x18, 0x45, 0x7d, 0x3e, 0x9e, 0xdc, 0xad, 0x3f,
  0xbf, 0xa0, 0xa0, 0xbf, 0xf1, 0xf6, 0xb0, 0x3f, 0xb7, 0x44, 0xf1, 0xbe,
  0x3a, 0xbb, 0x9d, 0xbe, 0x4a, 0xfd, 0xcd, 0x3e, 0xe6, 0x02, 0xeb, 0xbe,
  0x00, 0xca, 0xb5, 0xbe, 0x4a, 0x20, 0x20, 0x3f, 0xb4, 0xab, 0xf3, 0xbd,
  0x55, 0x84, 0x1a, 0xbe, 0x1c, 0xcb, 0x96, 0x3f, 0xcf, 0x95, 0xdc, 0x3e,
  0xfd, 0x9d, 0x2a, 0x3f, 0x09, 0x16, 0x7f, 0xbf, 0x7a, 0x43, 0x92, 0x3e,
  0xe9, 0xec, 0xa7, 0xbf, 0x7a, 0x1b, 0x80, 0x3f, 0xdb, 0x7a, 0xda, 0x3f,
  0x91, 0x0c, 0xfa, 0x3d, 0xf6, 0x90, 0xb9, 0xbe, 0x71, 0xf7, 0x6a, 0x3f,
  0x71, 0x1f, 0x73, 0xbe, 0x7c, 0xb0, 0x65, 0xbf, 0xed, 0x64, 0xe5, 0x3b,
  0x9e, 0xe3, 0x35, 0xbf, 0xb6, 0xfb, 0xa5, 0xbe, 0x57, 0x73, 0xa9, 0xbf,
  0x7b, 0xec, 0xa0, 0x3e, 0x3a, 0x8d, 0xc9, 0x3e, 0xc3, 0x2e, 0xb0, 0x3d,
  0x67, 0x6d, 0xc7, 0x3d, 0x73, 0x1c, 0xf8, 0xbe, 0xb0, 0x06, 0xff, 0x3c,
  0xe0, 0x91, 0xa3, 0x3e, 0x81, 0x83, 0x01, 0x3d, 0x94, 0xb5, 0x32, 0xbe,
  0x9b, 0xfa, 0xa9, 0x3d, 0x7f, 0xfb, 0xbb, 0x3b, 0x01, 0x62, 0x8b, 0x3e,
  0xad, 0x69, 0x08, 0x3f, 0x8f, 0x9b, 0x47, 0xba, 0x0c, 0xde, 0x21, 0xbf,
  0xed, 0xe4, 0x4f, 0xbf, 0x1d, 0x5a, 0x77, 0xbe, 0xad, 0xce, 0x12, 0x3f,
  0xb2, 0x2e, 0x09, 0xbe, 0x1a, 0xb9, 0xba, 0x3e, 0xd4, 0x9c, 0x83, 0xbf,
  0x22, 0x79, 0x7a, 0xbf, 0x4c, 0xd1, 0x97, 0xbd, 0x19, 0xe0, 0x64, 0xbf,
  0x7b, 0xe2, 0xbf, 0x3d, 0x24, 0xc3, 0x31, 0x3e, 0x23, 0xa4, 0xfd, 0x3e,
  0x49, 0x76, 0x00, 0xbf, 0xb4, 0xb5, 0x6e, 0x3d, 0x4d, 0x74, 0x44, 0xbf,
  0xd9, 0x11, 0x1b, 0x3f, 0x57, 0xd5, 0xa4, 0xbf, 0xc2, 0x78, 0xf4, 0x3d,
  0x72, 0x06, 0xbf, 0x3e, 0xe9, 0xe2, 0x70, 0x3e, 0xf3, 0xd6, 0x2a, 0x3e,
  0x7a, 0x91, 0x5c, 0xbf, 0x36, 0x93, 0xa6, 0xbf, 0x05, 0xe0, 0x49, 0xbf,
  0xeb, 0xe4, 0x80, 0xbf, 0xe2, 0xaf, 0x5c, 0xbe, 0x00, 0xd0, 0x06, 0xbe,
  0xaa, 0x9c, 0x92, 0xbf, 0x28, 0x4b, 0x93, 0xbd, 0x2d, 0x16, 0xb5, 0x3e,
  0xe5, 0x23, 0xc7, 0xbe, 0x0b, 0x36, 0xf6, 0xbc, 0x69, 0x01, 0x2f, 0x3e,
  0xa9, 0x80, 0xf4, 0x3e, 0x2e, 0x86, 0x83, 0x3e, 0xa9, 0xc1, 0x55, 0xbf,
  0xb0, 0xc2, 0xd8, 0x3e, 0x74, 0x1d, 0x90, 0x3f, 0xb2, 0x23, 0x4c, 0x3f,
  0xf4, 0xb5, 0x9e, 0xbe, 0xa5, 0x54, 0x71, 0x3d, 0x0f, 0xaa, 0xb5, 0xbe,
  0xfd, 0xee, 0x36, 0x3f, 0x7c, 0xf5, 0x9a, 0xbd, 0x17, 0xe0, 0x5a, 0x3e,
  0xe6, 0x17, 0x56, 0x3e, 0xfb, 0x69, 0xd8, 0x3e, 0x71, 0x00, 0x55, 0x3e,
  0x22, 0xa3, 0x1d, 0x3f, 0x0a, 0xe0, 0xcc, 0x3d, 0x38, 0x47, 0x19, 0x3f,
  0xdb, 0xa5, 0x42, 0xbf, 0x1e, 0x96, 0xb6, 0x3d, 0x8a, 0xd3, 0xe3, 0xbf,
  0x7c, 0x16, 0x72, 0x3f, 0x90, 0x88, 0x36, 0x3f, 0x71, 0x60, 0x45, 0x3b,
  0xc4, 0x88, 0x27, 0xbe, 0x04, 0xe5, 0x2c, 0x3e, 0x55, 0x16, 0x92, 0xbe,
  0x5f, 0x4b, 0x6b, 0xbf, 0xfb, 0x30, 0x43, 0x3e, 0xde, 0x94, 0x95, 0xbe,
  0xe5, 0x3e, 0x06, 0xbf, 0x30, 0x61, 0x0a, 0xbf, 0xb2, 0x6d, 0x93, 0x3e,
  0x78, 0x29, 0x23, 0x3f, 0x21, 0x34, 0xcb, 0xbe, 0x12, 0xfe, 0x98, 0x3e,
  0x23, 0x2a, 0x2e, 0x3f, 0xe6, 0xc9, 0x67, 0x3f, 0x43, 0x2b, 0x6a, 0x3e,
  0x8f, 0x02, 0xa2, 0xbd, 0x30, 0x2e, 0x81, 0xbe, 0x51, 0x5c, 0x23, 0x3f,
  0xa3, 0x86, 0x03, 0xbe, 0xd9, 0xf3, 0x00, 0x3f, 0x87, 0x77, 0x2f, 0x3e,
  0x66, 0xfe, 0xff, 0xff, 0x04, 0x00, 0x00, 0x00, 0x80, 0x00, 0x00, 0x00,
  0x77, 0x67, 0xbd, 0x3f, 0x9b, 0xe9, 0x3e, 0xbf, 0xd9, 0x79, 0xbd, 0xbf,
  0xe2, 0x0d, 0x09, 0xc0, 0x7c, 0x5f, 0xaf, 0xbf, 0x19, 0x92, 0x00, 0x3f,
  0x43, 0xf7, 0x2a, 0xbf, 0x53, 0x2a, 0x44, 0x3f, 0xd2, 0x24, 0x02, 0x40,
  0x49, 0xf8, 0x72, 0x3f, 0x80, 0x71, 0x55, 0xbf, 0xb5, 0xb1, 0xbd, 0xbe,
  0x83, 0xf9, 0x6a, 0x3f, 0xbc, 0x1a, 0xad, 0x3d, 0x09, 0xcc, 0xe1, 0xbe,
  0xd7, 0xd0, 0x00, 0x3f, 0x43, 0x9f, 0xe4, 0xbf, 0xd2, 0xb7, 0xb7, 0x3e,
  0x46, 0xd7, 0xee, 0x3f, 0xfd, 0xc7, 0xbd, 0x3f, 0xb4, 0xb4, 0x0d, 0xc0,
  0x9e, 0x69, 0x8c, 0xbf, 0xe8, 0xb2, 0x82, 0xbf, 0x72, 0x38, 0x95, 0xbf,
  0x91, 0xd6, 0x8b, 0xbf, 0x11, 0x2c, 0xc6, 0x3f, 0x5d, 0x11, 0xc8, 0xbe,
  0xaa, 0xf0, 0x81, 0x3f, 0x7c, 0x2f, 0xa5, 0xbf, 0xce, 0xf7, 0x53, 0xbe,
  0x8f, 0xd5, 0xae, 0x3f, 0xba, 0x34, 0xb1, 0x3f, 0xf2, 0xfe, 0xff, 0xff,
  0x04, 0x00, 0x00, 0x00, 0x20, 0x00, 0x00, 0x00, 0x19, 0x64, 0x7c, 0x3f,
  0x00, 0x21, 0x6c, 0x3f, 0x84, 0x5f, 0x53, 0x3f, 0x64, 0x66, 0x2f, 0xbf,
  0x89, 0x3f, 0x2c, 0xbf, 0x01, 0x37, 0x11, 0xbf, 0x8c, 0xc1, 0x11, 0xbf,
  0x94, 0xc5, 0x57, 0x3f, 0x1e, 0xff, 0xff, 0xff, 0x04, 0x00, 0x00, 0x00,
  0x40, 0x00, 0x00, 0x00, 0xae, 0x04, 0x5a, 0x3f, 0x9e, 0x20, 0xca, 0x3e,
  0xa5, 0xab, 0x92, 0xbd, 0x64, 0x23, 0x39, 0xbf, 0xd5, 0xcf, 0x24, 0xbf,
  0x3e, 0x07, 0x80, 0x3f, 0x17, 0xd7, 0x32, 0xbf, 0x0e, 0x06, 0x47, 0xbd,
  0x78, 0x39, 0x35, 0xbd, 0x9c, 0x09, 0x2e, 0xbf, 0x2a, 0xc0, 0x14, 0x3f,
  0x70, 0x72, 0x84, 0x3f, 0xec, 0x78, 0x22, 0xbf, 0xb9, 0xa0, 0x18, 0x3f,
  0xbd, 0xfa, 0x0f, 0x3d, 0xa1, 0x07, 0x40, 0xbf, 0x48, 0xf1, 0xff, 0xff,
  0x4c, 0xf1, 0xff, 0xff, 0x0f, 0x00, 0x00, 0x00, 0x4d, 0x4c, 0x49, 0x52,
  0x20, 0x43, 0x6f, 0x6e, 0x76, 0x65, 0x72, 0x74, 0x65, 0x64, 0x2e, 0x00,
  0x01, 0x00, 0x00, 0x00, 0x14, 0x00, 0x00, 0x00, 0x00, 0x00, 0x0e, 0x00,
  0x18, 0x00, 0x14, 0x00, 0x10, 0x00, 0x0c, 0x00, 0x08, 0x00, 0x04, 0x00,
  0x0e, 0x00, 0x00, 0x00, 0x14, 0x00, 0x00, 0x00, 0x1c, 0x00, 0x00, 0x00,
  0x50, 0x02, 0x00, 0x00, 0x54, 0x02, 0x00, 0x00, 0x58, 0x02, 0x00, 0x00,
  0x04, 0x00, 0x00, 0x00, 0x6d, 0x61, 0x69, 0x6e, 0x00, 0x00, 0x00, 0x00,
  0x08, 0x00, 0x00, 0x00, 0xec, 0x01, 0x00, 0x00, 0x84, 0x01, 0x00, 0x00,
  0x34, 0x01, 0x00, 0x00, 0xec, 0x00, 0x00, 0x00, 0xac, 0x00, 0x00, 0x00,
  0x78, 0x00, 0x00, 0x00, 0x40, 0x00, 0x00, 0x00, 0x04, 0x00, 0x00, 0x00,
  0xa6, 0xfe, 0xff, 0xff, 0x1c, 0x00, 0x00, 0x00, 0x00, 0x00, 0x00, 0x09,
  0x1c, 0x00, 0x00, 0x00, 0x20, 0x00, 0x00, 0x00, 0x04, 0x00, 0x00, 0x00,
  0x00, 0x00, 0x06, 0x00, 0x08, 0x00, 0x04, 0x00, 0x06, 0x00, 0x00, 0x00,
  0x00, 0x00, 0x80, 0x3f, 0x01, 0x00, 0x00, 0x00, 0x15, 0x00, 0x00, 0x00,
  0x01, 0x00, 0x00, 0x00, 0x14, 0x00, 0x00, 0x00, 0xde, 0xfe, 0xff, 0xff,
  0x14, 0x00, 0x00, 0x00, 0x00, 0x00, 0x00, 0x08, 0x10, 0x00, 0x00, 0x00,
  0x14, 0x00, 0x00, 0x00, 0x03, 0x00, 0x00, 0x00, 0x14, 0xf2, 0xff, 0xff,
  0x01, 0x00, 0x00, 0x00, 0x14, 0x00, 0x00, 0x00, 0x03, 0x00, 0x00, 0x00,
  0x13, 0x00, 0x00, 0x00, 0x0a, 0x00, 0x00, 0x00, 0x0b, 0x00, 0x00, 0x00,
  0x12, 0xff, 0xff, 0xff, 0x14, 0x00, 0x00, 0x00, 0x00, 0x00, 0x00, 0x1b,
  0x10, 0x00, 0x00, 0x00, 0x14, 0x00, 0x00, 0x00, 0x02, 0x00, 0x00, 0x00,
  0x48, 0xf2, 0xff, 0xff, 0x01, 0x00, 0x00, 0x00, 0x13, 0x00, 0x00, 0x00,
  0x02, 0x00, 0x00, 0x00, 0x12, 0x00, 0x00, 0x00, 0x0c, 0x00, 0x00, 0x00,
  0xde, 0xfe, 0xff, 0xff, 0x10, 0x00, 0x00, 0x00, 0x00, 0x00, 0x00, 0x01,
  0x18, 0x00, 0x00, 0x00, 0x1c, 0x00, 0x00, 0x00, 0xd0, 0xfe, 0xff, 0xff,
  0x00, 0x00, 0x00, 0x01, 0x01, 0x00, 0x00, 0x00, 0x01, 0x00, 0x00, 0x00,
  0x01, 0x00, 0x00, 0x00, 0x12, 0x00, 0x00, 0x00, 0x03, 0x00, 0x00, 0x00,
  0x11, 0x00, 0x00, 0x00, 0x08, 0x00, 0x00, 0x00, 0x03, 0x00, 0x00, 0x00,
  0x7e, 0xff, 0xff, 0xff, 0x14, 0x00, 0x00, 0x00, 0x00, 0x00, 0x00, 0x02,
  0x20, 0x00, 0x00, 0x00, 0x24, 0x00, 0x00, 0x00, 0x01, 0x00, 0x00, 0x00,
  0x6e, 0xff, 0xff, 0xff, 0x00, 0x00, 0x00, 0x01, 0x01, 0x00, 0x00, 0x00,
  0x02, 0x00, 0x00, 0x00, 0x02, 0x00, 0x00, 0x00, 0x01, 0x00, 0x00, 0x00,
  0x11, 0x00, 0x00, 0x00, 0x03, 0x00, 0x00, 0x00, 0x10, 0x00, 0x00, 0x00,
  0x04, 0x00, 0x00, 0x00, 0x01, 0x00, 0x00, 0x00, 0x5e, 0xff, 0xff, 0xff,
  0x10, 0x00, 0x00, 0x00, 0x00, 0x00, 0x00, 0x01, 0x18, 0x00, 0x00, 0x00,
  0x1c, 0x00, 0x00, 0x00, 0x50, 0xff, 0xff, 0xff, 0x00, 0x00, 0x00, 0x01,
  0x01, 0x00, 0x00, 0x00, 0x01, 0x00, 0x00, 0x00, 0x01, 0x00, 0x00, 0x00,
  0x10, 0x00, 0x00, 0x00, 0x03, 0x00, 0x00, 0x00, 0x0f, 0x00, 0x00, 0x00,
  0x09, 0x00, 0x00, 0x00, 0x05, 0x00, 0x00, 0x00, 0x00, 0x00, 0x0e, 0x00,
  0x1a, 0x00, 0x14, 0x00, 0x10, 0x00, 0x0c, 0x00, 0x0b, 0x00, 0x04, 0x00,
  0x0e, 0x00, 0x00, 0x00, 0x24, 0x00, 0x00, 0x00, 0x00, 0x00, 0x00, 0x02,
  0x30, 0x00, 0x00, 0x00, 0x34, 0x00, 0x00, 0x00, 0x01, 0x00, 0x00, 0x00,
  0x00, 0x00, 0x0e, 0x00, 0x14, 0x00, 0x00, 0x00, 0x10, 0x00, 0x0c, 0x00,
  0x08, 0x00, 0x07, 0x00, 0x0e, 0x00, 0x00, 0x00, 0x00, 0x00, 0x00, 0x01,
  0x01, 0x00, 0x00, 0x00, 0x01, 0x00, 0x00, 0x00, 0x01, 0x00, 0x00, 0x00,
  0x01, 0x00, 0x00, 0x00, 0x0f, 0x00, 0x00, 0x00, 0x03, 0x00, 0x00, 0x00,
  0x0e, 0x00, 0x00, 0x00, 0x06, 0x00, 0x00, 0x00, 0x02, 0x00, 0x00, 0x00,
  0x00, 0x00, 0x0e, 0x00, 0x14, 0x00, 0x00, 0x00, 0x10, 0x00, 0x0c, 0x00,
  0x0b, 0x00, 0x04, 0x00, 0x0e, 0x00, 0x00, 0x00, 0x1c, 0x00, 0x00, 0x00,
  0x00, 0x00, 0x00, 0x01, 0x24, 0x00, 0x00, 0x00, 0x28, 0x00, 0x00, 0x00,
  0x0c, 0x00, 0x10, 0x00, 0x00, 0x00, 0x0c, 0x00, 0x08, 0x00, 0x07, 0x00,
  0x0c, 0x00, 0x00, 0x00, 0x00, 0x00, 0x00, 0x01, 0x02, 0x00, 0x00, 0x00,
  0x02, 0x00, 0x00, 0x00, 0x01, 0x00, 0x00, 0x00, 0x0e, 0x00, 0x00, 0x00,
  0x03, 0x00, 0x00, 0x00, 0x00, 0x00, 0x00, 0x00, 0x0d, 0x00, 0x00, 0x00,
  0x07, 0x00, 0x00, 0x00, 0x01, 0x00, 0x00, 0x00, 0x15, 0x00, 0x00, 0x00,
  0x01, 0x00, 0x00, 0x00, 0x00, 0x00, 0x00, 0x00, 0x16, 0x00, 0x00, 0x00,
  0xe4, 0x0b, 0x00, 0x00, 0x90, 0x0b, 0x00, 0x00, 0x3c, 0x0b, 0x00, 0x00,
  0x00, 0x0b, 0x00, 0x00, 0xb8, 0x0a, 0x00, 0x00, 0x7c, 0x0a, 0x00, 0x00,
  0x34, 0x0a, 0x00, 0x00, 0xf8, 0x09, 0x00, 0x00, 0xb0, 0x09, 0x00, 0x00,
  0x68, 0x09, 0x00, 0x00, 0x28, 0x09, 0x00, 0x00, 0xe8, 0x08, 0x00, 0x00,
  0x74, 0x08, 0x00, 0x00, 0x4c, 0x07, 0x00, 0x00, 0x20, 0x06, 0x00, 0x00,
  0xe4, 0x04, 0x00, 0x00, 0xbc, 0x03, 0x00, 0x00, 0x80, 0x02, 0x00, 0x00,
  0x58, 0x01, 0x00, 0x00, 0xe4, 0x00, 0x00, 0x00, 0x60, 0x00, 0x00, 0x00,
  0x04, 0x00, 0x00, 0x00, 0x8a, 0xf4, 0xff, 0xff, 0x00, 0x00, 0x00, 0x01,
  0x14, 0x00, 0x00, 0x00, 0x1c, 0x00, 0x00, 0x00, 0x1c, 0x00, 0x00, 0x00,
  0x16, 0x00, 0x00, 0x00, 0x34, 0x00, 0x00, 0x00, 0x02, 0x00, 0x00, 0x00,
  0xff, 0xff, 0xff, 0xff, 0x07, 0x00, 0x00, 0x00, 0x6c, 0xf4, 0xff, 0xff,
  0x1b, 0x00, 0x00, 0x00, 0x53, 0x74, 0x61, 0x74, 0x65, 0x66, 0x75, 0x6c,
  0x50, 0x61, 0x72, 0x74, 0x69, 0x74, 0x69, 0x6f, 0x6e, 0x65, 0x64, 0x43,
  0x61, 0x6c, 0x6c, 0x5f, 0x31, 0x3a, 0x30, 0x00, 0x02, 0x00, 0x00, 0x00,
  0x01, 0x00, 0x00, 0x00, 0x07, 0x00, 0x00, 0x00, 0xe2, 0xf4, 0xff, 0xff,
  0x00, 0x00, 0x00, 0x01, 0x14, 0x00, 0x00, 0x00, 0x1c, 0x00, 0x00, 0x00,
  0x1c, 0x00, 0x00, 0x00, 0x15, 0x00, 0x00, 0x00, 0x5c, 0x00, 0x00, 0x00,
  0x02, 0x00, 0x00, 0x00, 0xff, 0xff, 0xff, 0xff, 0x07, 0x00, 0x00, 0x00,
  0xc4, 0xf4, 0xff, 0xff, 0x40, 0x00, 0x00, 0x00, 0x73, 0x65, 0x71, 0x75,
  0x65, 0x6e, 0x74, 0x69, 0x61, 0x6c, 0x5f, 0x32, 0x5f, 0x31, 0x2f, 0x64,
  0x65, 0x6e, 0x73, 0x65, 0x5f, 0x32, 0x5f, 0x31, 0x2f, 0x4d, 0x61, 0x74,
  0x4d, 0x75, 0x6c, 0x3b, 0x73, 0x65, 0x71, 0x75, 0x65, 0x6e, 0x74, 0x69,
  0x61, 0x6c, 0x5f, 0x32, 0x5f, 0x31, 0x2f, 0x64, 0x65, 0x6e, 0x73, 0x65,
  0x5f, 0x32, 0x5f, 0x31, 0x2f, 0x42, 0x69, 0x61, 0x73, 0x41, 0x64, 0x64,
  0x00, 0x00, 0x00, 0x00, 0x02, 0x00, 0x00, 0x00, 0x01, 0x00, 0x00, 0x00,
  0x07, 0x00, 0x00, 0x00, 0x62, 0xf5, 0xff, 0xff, 0x00, 0x00, 0x00, 0x01,
  0x14, 0x00, 0x00, 0x00, 0x1c, 0x00, 0x00, 0x00, 0x1c, 0x00, 0x00, 0x00,
  0x14, 0x00, 0x00, 0x00, 0x4c, 0x00, 0x00, 0x00, 0x02, 0x00, 0x00, 0x00,
  0xff, 0xff, 0xff, 0xff, 0x20, 0x00, 0x00, 0x00, 0x44, 0xf5, 0xff, 0xff,
  0x30, 0x00, 0x00, 0x00, 0x73, 0x65, 0x71, 0x75, 0x65, 0x6e, 0x74, 0x69,
  0x61, 0x6c, 0x5f, 0x32, 0x5f, 0x31, 0x2f, 0x67, 0x6c, 0x6f, 0x62, 0x61,
  0x6c, 0x5f, 0x61, 0x76, 0x65, 0x72, 0x61, 0x67, 0x65, 0x5f, 0x70, 0x6f,
  0x6f, 0x6c, 0x69, 0x6e, 0x67, 0x32, 0x64, 0x5f, 0x32, 0x5f, 0x31, 0x2f,
  0x4d, 0x65, 0x61, 0x6e, 0x00, 0x00, 0x00, 0x00, 0x02, 0x00, 0x00, 0x00,
  0x01, 0x00, 0x00, 0x00, 0x20, 0x00, 0x00, 0x00, 0xd2, 0xf5, 0xff, 0xff,
  0x00, 0x00, 0x00, 0x01, 0x14, 0x00, 0x00, 0x00, 0x24, 0x00, 0x00, 0x00,
  0x24, 0x00, 0x00, 0x00, 0x13, 0x00, 0x00, 0x00, 0xf8, 0x00, 0x00, 0x00,
  0x04, 0x00, 0x00, 0x00, 0xff, 0xff, 0xff, 0xff, 0x18, 0x00, 0x00, 0x00,
  0x18, 0x00, 0x00, 0x00, 0x20, 0x00, 0x00, 0x00, 0xbc, 0xf5, 0xff, 0xff,
  0xd7, 0x00, 0x00, 0x00, 0x73, 0x65, 0x71, 0x75, 0x65, 0x6e, 0x74, 0x69,
  0x61, 0x6c, 0x5f, 0x32, 0x5f, 0x31, 0x2f, 0x72, 0x65, 0x5f, 0x6c, 0x75,
  0x5f, 0x31, 0x34, 0x5f, 0x31, 0x2f, 0x52, 0x65, 0x6c, 0x75, 0x3b, 0x73,
  0x65, 0x71, 0x75, 0x65, 0x6e, 0x74, 0x69, 0x61, 0x6c, 0x5f, 0x32, 0x5f,
  0x31, 0x2f, 0x62, 0x61, 0x74, 0x63, 0x68, 0x5f, 0x6e, 0x6f, 0x72, 0x6d,
  0x61, 0x6c, 0x69, 0x7a, 0x61, 0x74, 0x69, 0x6f, 0x6e, 0x5f, 0x31, 0x34,
  0x5f, 0x31, 0x2f, 0x62, 0x61, 0x74, 0x63, 0x68, 0x6e, 0x6f, 0x72, 0x6d,
  0x2f, 0x61, 0x64, 0x64, 0x5f, 0x31, 0x3b, 0x73, 0x65, 0x71, 0x75, 0x65,
  0x6e, 0x74, 0x69, 0x61, 0x6c, 0x5f, 0x32, 0x5f, 0x31, 0x2f, 0x62, 0x61,
  0x74, 0x63, 0x68, 0x5f, 0x6e, 0x6f, 0x72, 0x6d, 0x61, 0x6c, 0x69, 0x7a,
  0x61, 0x74, 0x69, 0x6f, 0x6e, 0x5f, 0x31, 0x34, 0x5f, 0x31, 0x2f, 0x62,
  0x61, 0x74, 0x63, 0x68, 0x6e, 0x6f, 0x72, 0x6d, 0x2f, 0x6d, 0x75, 0x6c,
  0x5f, 0x31, 0x3b, 0x3b, 0x73, 0x65, 0x71, 0x75, 0x65, 0x6e, 0x74, 0x69,
  0x61, 0x6c, 0x5f, 0x32, 0x5f, 0x31, 0x2f, 0x63, 0x6f, 0x6e, 0x76, 0x32,
  0x64, 0x5f, 0x38, 0x5f, 0x31, 0x2f, 0x42, 0x69, 0x61, 0x73, 0x41, 0x64,
  0x64, 0x3b, 0x73, 0x65, 0x71, 0x75, 0x65, 0x6e, 0x74, 0x69, 0x61, 0x6c,
  0x5f, 0x32, 0x5f, 0x31, 0x2f, 0x63, 0x6f, 0x6e, 0x76, 0x32, 0x64, 0x5f,
  0x38, 0x5f, 0x31, 0x2f, 0x63, 0x6f, 0x6e, 0x76, 0x6f, 0x6c, 0x75, 0x74,
  0x69, 0x6f, 0x6e, 0x00, 0x04, 0x00, 0x00, 0x00, 0x01, 0x00, 0x00, 0x00,
  0x18, 0x00, 0x00, 0x00, 0x18, 0x00, 0x00, 0x00, 0x20, 0x00, 0x00, 0x00,
  0xf6, 0xf6, 0xff, 0xff, 0x00, 0x00, 0x00, 0x01, 0x14, 0x00, 0x00, 0x00,
  0x24, 0x00, 0x00, 0x00, 0x24, 0x00, 0x00, 0x00, 0x12, 0x00, 0x00, 0x00,
  0x0c, 0x01, 0x00, 0x00, 0x04, 0x00, 0x00, 0x00, 0xff, 0xff, 0xff, 0xff,
  0x18, 0x00, 0x00, 0x00, 0x18, 0x00, 0x00, 0x00, 0x10, 0x00, 0x00, 0x00,
  0xe0, 0xf6, 0xff, 0xff, 0xe9, 0x00, 0x00, 0x00, 0x73, 0x65, 0x71, 0x75,
  0x65, 0x6e, 0x74, 0x69, 0x61, 0x6c, 0x5f, 0x32, 0x5f, 0x31, 0x2f, 0x72,
  0x65, 0x5f, 0x6c, 0x75, 0x5f, 0x31, 0x33, 0x5f, 0x31, 0x2f, 0x52, 0x65,
  0x6c, 0x75, 0x3b, 0x73, 0x65, 0x71, 0x75, 0x65, 0x6e, 0x74, 0x69, 0x61,
  0x6c, 0x5f, 0x32, 0x5f, 0x31, 0x2f, 0x62, 0x61, 0x74, 0x63, 0x68, 0x5f,
  0x6e, 0x6f, 0x72, 0x6d, 0x61, 0x6c, 0x69, 0x7a, 0x61, 0x74, 0x69, 0x6f,
  0x6e, 0x5f, 0x31, 0x33, 0x5f, 0x31, 0x2f, 0x62, 0x61, 0x74, 0x63, 0x68,
  0x6e, 0x6f, 0x72, 0x6d, 0x2f, 0x61, 0x64, 0x64, 0x5f, 0x31, 0x3b, 0x73,
  0x65, 0x71, 0x75, 0x65, 0x6e, 0x74, 0x69, 0x61, 0x6c, 0x5f, 0x32, 0x5f,
  0x31, 0x2f, 0x62, 0x61, 0x74, 0x63, 0x68, 0x5f, 0x6e, 0x6f, 0x72, 0x6d,
  0x61, 0x6c, 0x69, 0x7a, 0x61, 0x74, 0x69, 0x6f, 0x6e, 0x5f, 0x31, 0x33,
  0x5f, 0x31, 0x2f, 0x62, 0x61, 0x74, 0x63, 0x68, 0x6e, 0x6f, 0x72, 0x6d,
  0x2f, 0x6d, 0x75, 0x6c, 0x5f, 0x31, 0x3b, 0x73, 0x65, 0x71, 0x75, 0x65,
  0x6e, 0x74, 0x69, 0x61, 0x6c, 0x5f, 0x32, 0x5f, 0x31, 0x2f, 0x64, 0x65,
  0x70, 0x74, 0x68, 0x77, 0x69, 0x73, 0x65, 0x5f, 0x63, 0x6f, 0x6e, 0x76,
  0x32, 0x64, 0x5f, 0x35, 0x5f, 0x31, 0x2f, 0x42, 0x69, 0x61, 0x73, 0x41,
  0x64, 0x64, 0x3b, 0x73, 0x65, 0x71, 0x75, 0x65, 0x6e, 0x74, 0x69, 0x61,
  0x6c, 0x5f, 0x32, 0x5f, 0x31, 0x2f, 0x64, 0x65, 0x70, 0x74, 0x68, 0x77,
  0x69, 0x73, 0x65, 0x5f, 0x63, 0x6f, 0x6e, 0x76, 0x32, 0x64, 0x5f, 0x35,
  0x5f, 0x31, 0x2f, 0x64, 0x65, 0x70, 0x74, 0x68, 0x77, 0x69, 0x73, 0x65,
  0x3b, 0x00, 0x00, 0x00, 0x04, 0x00, 0x00, 0x00, 0x01, 0x00, 0x00, 0x00,
  0x18, 0x00, 0x00, 0x00, 0x18, 0x00, 0x00, 0x00, 0x10, 0x00, 0x00, 0x00,
  0x2e, 0xf8, 0xff, 0xff, 0x00, 0x00, 0x00, 0x01, 0x14, 0x00, 0x00, 0x00,
  0x24, 0x00, 0x00, 0x00, 0x24, 0x00, 0x00, 0x00, 0x11, 0x00, 0x00, 0x00,
  0xf8, 0x00, 0x00, 0x00, 0x04, 0x00, 0x00, 0x00, 0xff, 0xff, 0xff, 0xff,
  0x30, 0x00, 0x00, 0x00, 0x30, 0x00, 0x00, 0x00, 0x10, 0x00, 0x00, 0x00,
  0x18, 0xf8, 0xff, 0xff, 0xd7, 0x00, 0x00, 0x00, 0x73, 0x65, 0x71, 0x75,
  0x65, 0x6e, 0x74, 0x69, 0x61, 0x6c, 0x5f, 0x32, 0x5f, 0x31, 0x2f, 0x72,
  0x65, 0x5f, 0x6c, 0x75, 0x5f, 0x31, 0x32, 0x5f, 0x31, 0x2f, 0x52, 0x65,
  0x6c, 0x75, 0x3b, 0x73, 0x65, 0x71, 0x75, 0x65, 0x6e, 0x74, 0x69, 0x61,
  0x6c, 0x5f, 0x32, 0x5f, 0x31, 0x2f, 0x62, 0x61, 0x74, 0x63, 0x68, 0x5f,
  0x6e, 0x6f, 0x72, 0x6d, 0x61, 0x6c, 0x69, 0x7a, 0x61, 0x74, 0x69, 0x6f,
  0x6e, 0x5f, 0x31, 0x32, 0x5f, 0x31, 0x2f, 0x62, 0x61, 0x74, 0x63, 0x68,
  0x6e, 0x6f, 0x72, 0x6d, 0x2f, 0x61, 0x64, 0x64, 0x5f, 0x31, 0x3b, 0x73,
  0x65, 0x71, 0x75, 0x65, 0x6e, 0x74, 0x69, 0x61, 0x6c, 0x5f, 0x32, 0x5f,
  0x31, 0x2f, 0x62, 0x61, 0x74, 0x63, 0x68, 0x5f, 0x6e, 0x6f, 0x72, 0x6d,
  0x61, 0x6c, 0x69, 0x7a, 0x61, 0x74, 0x69, 0x6f, 0x6e, 0x5f, 0x31, 0x32,
  0x5f, 0x31, 0x2f, 0x62, 0x61, 0x74, 0x63, 0x68, 0x6e, 0x6f, 0x72, 0x6d,
  0x2f, 0x6d, 0x75, 0x6c, 0x5f, 0x31, 0x3b, 0x3b, 0x73, 0x65, 0x71, 0x75,
  0x65, 0x6e, 0x74, 0x69, 0x61, 0x6c, 0x5f, 0x32, 0x5f, 0x31, 0x2f, 0x63,
  0x6f, 0x6e, 0x76, 0x32, 0x64, 0x5f, 0x37, 0x5f, 0x31, 0x2f, 0x42, 0x69,
  0x61, 0x73, 0x41, 0x64, 0x64, 0x3b, 0x73, 0x65, 0x71, 0x75, 0x65, 0x6e,
  0x74, 0x69, 0x61, 0x6c, 0x5f, 0x32, 0x5f, 0x31, 0x2f, 0x63, 0x6f, 0x6e,
  0x76, 0x32, 0x64, 0x5f, 0x37, 0x5f, 0x31, 0x2f, 0x63, 0x6f, 0x6e, 0x76,
  0x6f, 0x6c, 0x75, 0x74, 0x69, 0x6f, 0x6e, 0x00, 0x04, 0x00, 0x00, 0x00,
  0x01, 0x00, 0x00, 0x00, 0x30, 0x00, 0x00, 0x00, 0x30, 0x00, 0x00, 0x00,
  0x10, 0x00, 0x00, 0x00, 0x52, 0xf9, 0xff, 0xff, 0x00, 0x00, 0x00, 0x01,
  0x14, 0x00, 0x00, 0x00, 0x24, 0x00, 0x00, 0x00, 0x24, 0x00, 0x00, 0x00,
  0x10, 0x00, 0x00, 0x00, 0x0c, 0x01, 0x00, 0x00, 0x04, 0x00, 0x00, 0x00,
  0xff, 0xff, 0xff, 0xff, 0x30, 0x00, 0x00, 0x00, 0x30, 0x00, 0x00, 0x00,
  0x08, 0x00, 0x00, 0x00, 0x3c, 0xf9, 0xff, 0xff, 0xe9, 0x00, 0x00, 0x00,
  0x73, 0x65, 0x71, 0x75, 0x65, 0x6e, 0x74, 0x69, 0x61, 0x6c, 0x5f, 0x32,
  0x5f, 0x31, 0x2f, 0x72, 0x65, 0x5f, 0x6c, 0x75, 0x5f, 0x31, 0x31, 0x5f,
  0x31, 0x2f, 0x52, 0x65, 0x6c, 0x75, 0x3b, 0x73, 0x65, 0x71, 0x75, 0x65,
  0x6e, 0x74, 0x69, 0x61, 0x6c, 0x5f, 0x32, 0x5f, 0x31, 0x2f, 0x62, 0x61,
  0x74, 0x63, 0x68, 0x5f, 0x6e, 0x6f, 0x72, 0x6d, 0x61, 0x6c, 0x69, 0x7a,
  0x61, 0x74, 0x69, 0x6f, 0x6e, 0x5f, 0x31, 0x31, 0x5f, 0x31, 0x2f, 0x62,
  0x61, 0x74, 0x63, 0x68, 0x6e, 0x6f, 0x72, 0x6d, 0x2f, 0x61, 0x64, 0x64,
  0x5f, 0x31, 0x3b, 0x73, 0x65, 0x71, 0x75, 0x65, 0x6e, 0x74, 0x69, 0x61,
  0x6c, 0x5f, 0x32, 0x5f, 0x31, 0x2f, 0x62, 0x61, 0x74, 0x63, 0x68, 0x5f,
  0x6e, 0x6f, 0x72, 0x6d, 0x61, 0x6c, 0x69, 0x7a, 0x61, 0x74, 0x69, 0x6f,
  0x6e, 0x5f, 0x31, 0x31, 0x5f, 0x31, 0x2f, 0x62, 0x61, 0x74, 0x63, 0x68,
  0x6e, 0x6f, 0x72, 0x6d, 0x2f, 0x6d, 0x75, 0x6c, 0x5f, 0x31, 0x3b, 0x73,
  0x65, 0x71, 0x75, 0x65, 0x6e, 0x74, 0x69, 0x61, 0x6c, 0x5f, 0x32, 0x5f,
  0x31, 0x2f, 0x64, 0x65, 0x70, 0x74, 0x68, 0x77, 0x69, 0x73, 0x65, 0x5f,
  0x63, 0x6f, 0x6e, 0x76, 0x32, 0x64, 0x5f, 0x34, 0x5f, 0x31, 0x2f, 0x42,
  0x69, 0x61, 0x73, 0x41, 0x64, 0x64, 0x3b, 0x73, 0x65, 0x71, 0x75, 0x65,
  0x6e, 0x74, 0x69, 0x61, 0x6c, 0x5f, 0x32, 0x5f, 0x31, 0x2f, 0x64, 0x65,
  0x70, 0x74, 0x68, 0x77, 0x69, 0x73, 0x65, 0x5f, 0x63, 0x6f, 0x6e, 0x76,
  0x32, 0x64, 0x5f, 0x34, 0x5f, 0x31, 0x2f, 0x64, 0x65, 0x70, 0x74, 0x68,
  0x77, 0x69, 0x73, 0x65, 0x3b, 0x00, 0x00, 0x00, 0x04, 0x00, 0x00, 0x00,
  0x01, 0x00, 0x00, 0x00, 0x30, 0x00, 0x00, 0x00, 0x30, 0x00, 0x00, 0x00,
  0x08, 0x00, 0x00, 0x00, 0x8a, 0xfa, 0xff, 0xff, 0x00, 0x00, 0x00, 0x01,
  0x14, 0x00, 0x00, 0x00, 0x24, 0x00, 0x00, 0x00, 0x24, 0x00, 0x00, 0x00,
  0x0f, 0x00, 0x00, 0x00, 0xfc, 0x00, 0x00, 0x00, 0x04, 0x00, 0x00, 0x00,
  0xff, 0xff, 0xff, 0xff, 0x30, 0x00, 0x00, 0x00, 0x30, 0x00, 0x00, 0x00,
  0x08, 0x00, 0x00, 0x00, 0x74, 0xfa, 0xff, 0xff, 0xd8, 0x00, 0x00, 0x00,
  0x73, 0x65, 0x71, 0x75, 0x65, 0x6e, 0x74, 0x69, 0x61, 0x6c, 0x5f, 0x32,
  0x5f, 0x31, 0x2f, 0x72, 0x65, 0x5f, 0x6c, 0x75, 0x5f, 0x31, 0x30, 0x5f,
  0x31, 0x2f, 0x52, 0x65, 0x6c, 0x75, 0x3b, 0x73, 0x65, 0x71, 0x75, 0x65,
  0x6e, 0x74, 0x69, 0x61, 0x6c, 0x5f, 0x32, 0x5f, 0x31, 0x2f, 0x62, 0x61,
  0x74, 0x63, 0x68, 0x5f, 0x6e, 0x6f, 0x72, 0x6d, 0x61, 0x6c, 0x69, 0x7a,
  0x61, 0x74, 0x69, 0x6f, 0x6e, 0x5f, 0x31, 0x30, 0x5f, 0x31, 0x2f, 0x62,
  0x61, 0x74, 0x63, 0x68, 0x6e, 0x6f, 0x72, 0x6d, 0x2f, 0x61, 0x64, 0x64,
  0x5f, 0x31, 0x3b, 0x73, 0x65, 0x71, 0x75, 0x65, 0x6e, 0x74, 0x69, 0x61,
  0x6c, 0x5f, 0x32, 0x5f, 0x31, 0x2f, 0x62, 0x61, 0x74, 0x63, 0x68, 0x5f,
  0x6e, 0x6f, 0x72, 0x6d, 0x61, 0x6c, 0x69, 0x7a, 0x61, 0x74, 0x69, 0x6f,
  0x6e, 0x5f, 0x31, 0x30, 0x5f, 0x31, 0x2f, 0x62, 0x61, 0x74, 0x63, 0x68,
  0x6e, 0x6f, 0x72, 0x6d, 0x2f, 0x6d, 0x75, 0x6c, 0x5f, 0x31, 0x3b, 0x3b,
  0x73, 0x65, 0x71, 0x75, 0x65, 0x6e, 0x74, 0x69, 0x61, 0x6c, 0x5f, 0x32,
  0x5f, 0x31, 0x2f, 0x63, 0x6f, 0x6e, 0x76, 0x32, 0x64, 0x5f, 0x36, 0x5f,
  0x31, 0x2f, 0x42, 0x69, 0x61, 0x73, 0x41, 0x64, 0x64, 0x3b, 0x73, 0x65,
  0x71, 0x75, 0x65, 0x6e, 0x74, 0x69, 0x61, 0x6c, 0x5f, 0x32, 0x5f, 0x31,
  0x2f, 0x63, 0x6f, 0x6e, 0x76, 0x32, 0x64, 0x5f, 0x36, 0x5f, 0x31, 0x2f,
  0x63, 0x6f, 0x6e, 0x76, 0x6f, 0x6c, 0x75, 0x74, 0x69, 0x6f, 0x6e, 0x31,
  0x00, 0x00, 0x00, 0x00, 0x04, 0x00, 0x00, 0x00, 0x01, 0x00, 0x00, 0x00,
  0x30, 0x00, 0x00, 0x00, 0x30, 0x00, 0x00, 0x00, 0x08, 0x00, 0x00, 0x00,
  0x02, 0xfc, 0xff, 0xff, 0x00, 0x00, 0x00, 0x01, 0x10, 0x00, 0x00, 0x00,
  0x10, 0x00, 0x00, 0x00, 0x0e, 0x00, 0x00, 0x00, 0xe4, 0x00, 0x00, 0x00,
  0x84, 0xfb, 0xff, 0xff, 0xd7, 0x00, 0x00, 0x00, 0x73, 0x65, 0x71, 0x75,
  0x65, 0x6e, 0x74, 0x69, 0x61, 0x6c, 0x5f, 0x32, 0x5f, 0x31, 0x2f, 0x72,
  0x65, 0x5f, 0x6c, 0x75, 0x5f, 0x31, 0x30, 0x5f, 0x31, 0x2f, 0x52, 0x65,
  0x6c, 0x75, 0x3b, 0x73, 0x65, 0x71, 0x75, 0x65, 0x6e, 0x74, 0x69, 0x61,
  0x6c, 0x5f, 0x32, 0x5f, 0x31, 0x2f, 0x62, 0x61, 0x74, 0x63, 0x68, 0x5f,
  0x6e, 0x6f, 0x72, 0x6d, 0x61, 0x6c, 0x69, 0x7a, 0x61, 0x74, 0x69, 0x6f,
  0x6e, 0x5f, 0x31, 0x30, 0x5f, 0x31, 0x2f, 0x62, 0x61, 0x74, 0x63, 0x68,
  0x6e, 0x6f, 0x72, 0x6d, 0x2f, 0x61, 0x64, 0x64, 0x5f, 0x31, 0x3b, 0x73,
  0x65, 0x71, 0x75, 0x65, 0x6e, 0x74, 0x69, 0x61, 0x6c, 0x5f, 0x32, 0x5f,
  0x31, 0x2f, 0x62, 0x61, 0x74, 0x63, 0x68, 0x5f, 0x6e, 0x6f, 0x72, 0x6d,
  0x61, 0x6c, 0x69, 0x7a, 0x61, 0x74, 0x69, 0x6f, 0x6e, 0x5f, 0x31, 0x30,
  0x5f, 0x31, 0x2f, 0x62, 0x61, 0x74, 0x63, 0x68, 0x6e, 0x6f, 0x72, 0x6d,
  0x2f, 0x6d, 0x75, 0x6c, 0x5f, 0x31, 0x3b, 0x3b, 0x73, 0x65, 0x71, 0x75,
  0x65, 0x6e, 0x74, 0x69, 0x61, 0x6c, 0x5f, 0x32, 0x5f, 0x31, 0x2f, 0x63,
  0x6f, 0x6e, 0x76, 0x32, 0x64, 0x5f, 0x36, 0x5f, 0x31, 0x2f, 0x42, 0x69,
  0x61, 0x73, 0x41, 0x64, 0x64, 0x3b, 0x73, 0x65, 0x71, 0x75, 0x65, 0x6e,
  0x74, 0x69, 0x61, 0x6c, 0x5f, 0x32, 0x5f, 0x31, 0x2f, 0x63, 0x6f, 0x6e,
  0x76, 0x32, 0x64, 0x5f, 0x36, 0x5f, 0x31, 0x2f, 0x63, 0x6f, 0x6e, 0x76,
  0x6f, 0x6c, 0x75, 0x74, 0x69, 0x6f, 0x6e, 0x00, 0x04, 0x00, 0x00, 0x00,
  0x08, 0x00, 0x00, 0x00, 0x03, 0x00, 0x00, 0x00, 0x03, 0x00, 0x00, 0x00,
  0x03, 0x00, 0x00, 0x00, 0x00, 0x00, 0x16, 0x00, 0x1c, 0x00, 0x18, 0x00,
  0x17, 0x00, 0x10, 0x00, 0x0c, 0x00, 0x08, 0x00, 0x00, 0x00, 0x00, 0x00,
  0x00, 0x00, 0x07, 0x00, 0x16, 0x00, 0x00, 0x00, 0x00, 0x00, 0x00, 0x01,
  0x14, 0x00, 0x00, 0x00, 0x14, 0x00, 0x00, 0x00, 0x0d, 0x00, 0x00, 0x00,
  0x00, 0x00, 0x00, 0x02, 0x50, 0x00, 0x00, 0x00, 0xac, 0xfc, 0xff, 0xff,
  0x42, 0x00, 0x00, 0x00, 0x73, 0x65, 0x71, 0x75, 0x65, 0x6e, 0x74, 0x69,
  0x61, 0x6c, 0x5f, 0x32, 0x5f, 0x31, 0x2f, 0x67, 0x6c, 0x6f, 0x62, 0x61,
  0x6c, 0x5f, 0x61, 0x76, 0x65, 0x72, 0x61, 0x67, 0x65, 0x5f, 0x70, 0x6f,
  0x6f, 0x6c, 0x69, 0x6e, 0x67, 0x32, 0x64, 0x5f, 0x32, 0x5f, 0x31, 0x2f,
  0x4d, 0x65, 0x61, 0x6e, 0x2f, 0x72, 0x65, 0x64, 0x75, 0x63, 0x74, 0x69,
  0x6f, 0x6e, 0x5f, 0x69, 0x6e, 0x64, 0x69, 0x63, 0x65, 0x73, 0x00, 0x00,
  0x01, 0x00, 0x00, 0x00, 0x02, 0x00, 0x00, 0x00, 0x96, 0xfd, 0xff, 0xff,
  0x00, 0x00, 0x00, 0x01, 0x10, 0x00, 0x00, 0x00, 0x10, 0x00, 0x00, 0x00,
  0x0c, 0x00, 0x00, 0x00, 0x20, 0x00, 0x00, 0x00, 0x18, 0xfd, 0xff, 0xff,
  0x10, 0x00, 0x00, 0x00, 0x61, 0x72, 0x69, 0x74, 0x68, 0x2e, 0x63, 0x6f,
  0x6e, 0x73, 0x74, 0x61, 0x6e, 0x74, 0x31, 0x30, 0x00, 0x00, 0x00, 0x00,
  0x01, 0x00, 0x00, 0x00, 0x07, 0x00, 0x00, 0x00, 0xd2, 0xfd, 0xff, 0xff,
  0x00, 0x00, 0x00, 0x01, 0x10, 0x00, 0x00, 0x00, 0x10, 0x00, 0x00, 0x00,
  0x0b, 0x00, 0x00, 0x00, 0x1c, 0x00, 0x00, 0x00, 0x54, 0xfd, 0xff, 0xff,
  0x0f, 0x00, 0x00, 0x00, 0x61, 0x72, 0x69, 0x74, 0x68, 0x2e, 0x63, 0x6f,
  0x6e, 0x73, 0x74, 0x61, 0x6e, 0x74, 0x39, 0x00, 0x02, 0x00, 0x00, 0x00,
  0x07, 0x00, 0x00, 0x00, 0x20, 0x00, 0x00, 0x00, 0x0e, 0xfe, 0xff, 0xff,
  0x00, 0x00, 0x00, 0x01, 0x10, 0x00, 0x00, 0x00, 0x10, 0x00, 0x00, 0x00,
  0x0a, 0x00, 0x00, 0x00, 0x1c, 0x00, 0x00, 0x00, 0x90, 0xfd, 0xff, 0xff,
  0x0f, 0x00, 0x00, 0x00, 0x61, 0x72, 0x69, 0x74, 0x68, 0x2e, 0x63, 0x6f,
  0x6e, 0x73, 0x74, 0x61, 0x6e, 0x74, 0x38, 0x00, 0x04, 0x00, 0x00, 0x00,
  0x10, 0x00, 0x00, 0x00, 0x01, 0x00, 0x00, 0x00, 0x01, 0x00, 0x00, 0x00,
  0x08, 0x00, 0x00, 0x00, 0x52, 0xfe, 0xff, 0xff, 0x00, 0x00, 0x00, 0x01,
  0x10, 0x00, 0x00, 0x00, 0x10, 0x00, 0x00, 0x00, 0x09, 0x00, 0x00, 0x00,
  0x1c, 0x00, 0x00, 0x00, 0xd4, 0xfd, 0xff, 0xff, 0x0f, 0x00, 0x00, 0x00,
  0x61, 0x72, 0x69, 0x74, 0x68, 0x2e, 0x63, 0x6f, 0x6e, 0x73, 0x74, 0x61,
  0x6e, 0x74, 0x37, 0x00, 0x04, 0x00, 0x00, 0x00, 0x20, 0x00, 0x00, 0x00,
  0x01, 0x00, 0x00, 0x00, 0x01, 0x00, 0x00, 0x00, 0x10, 0x00, 0x00, 0x00,
  0x96, 0xfe, 0xff, 0xff, 0x00, 0x00, 0x00, 0x01, 0x10, 0x00, 0x00, 0x00,
  0x10, 0x00, 0x00, 0x00, 0x08, 0x00, 0x00, 0x00, 0x1c, 0x00, 0x00, 0x00,
  0x18, 0xfe, 0xff, 0xff, 0x0f, 0x00, 0x00, 0x00, 0x61, 0x72, 0x69, 0x74,
  0x68, 0x2e, 0x63, 0x6f, 0x6e, 0x73, 0x74, 0x61, 0x6e, 0x74, 0x36, 0x00,
  0x01, 0x00, 0x00, 0x00, 0x08, 0x00, 0x00, 0x00, 0xce, 0xfe, 0xff, 0xff,
  0x00, 0x00, 0x00, 0x01, 0x10, 0x00, 0x00, 0x00, 0x10, 0x00, 0x00, 0x00,
  0x07, 0x00, 0x00, 0x00, 0x1c, 0x00, 0x00, 0x00, 0x50, 0xfe, 0xff, 0xff,
  0x0f, 0x00, 0x00, 0x00, 0x61, 0x72, 0x69, 0x74, 0x68, 0x2e, 0x63, 0x6f,
  0x6e, 0x73, 0x74, 0x61, 0x6e, 0x74, 0x35, 0x00, 0x04, 0x00, 0x00, 0x00,
  0x01, 0x00, 0x00, 0x00, 0x03, 0x00, 0x00, 0x00, 0x03, 0x00, 0x00, 0x00,
  0x08, 0x00, 0x00, 0x00, 0x12, 0xff, 0xff, 0xff, 0x00, 0x00, 0x00, 0x01,
  0x10, 0x00, 0x00, 0x00, 0x10, 0x00, 0x00, 0x00, 0x06, 0x00, 0x00, 0x00,
  0x1c, 0x00, 0x00, 0x00, 0x94, 0xfe, 0xff, 0xff, 0x0f, 0x00, 0x00, 0x00,
  0x61, 0x72, 0x69, 0x74, 0x68, 0x2e, 0x63, 0x6f, 0x6e, 0x73, 0x74, 0x61,
  0x6e, 0x74, 0x34, 0x00, 0x01, 0x00, 0x00, 0x00, 0x10, 0x00, 0x00, 0x00,
  0x4a, 0xff, 0xff, 0xff, 0x00, 0x00, 0x00, 0x01, 0x10, 0x00, 0x00, 0x00,
  0x10, 0x00, 0x00, 0x00, 0x05, 0x00, 0x00, 0x00, 0x1c, 0x00, 0x00, 0x00,
  0xcc, 0xfe, 0xff, 0xff, 0x0f, 0x00, 0x00, 0x00, 0x61, 0x72, 0x69, 0x74,
  0x68, 0x2e, 0x63, 0x6f, 0x6e, 0x73, 0x74, 0x61, 0x6e, 0x74, 0x33, 0x00,
  0x04, 0x00, 0x00, 0x00, 0x01, 0x00, 0x00, 0x00, 0x03, 0x00, 0x00, 0x00,
  0x03, 0x00, 0x00, 0x00, 0x10, 0x00, 0x00, 0x00, 0x8e, 0xff, 0xff, 0xff,
  0x00, 0x00, 0x00, 0x01, 0x10, 0x00, 0x00, 0x00, 0x10, 0x00, 0x00, 0x00,
  0x04, 0x00, 0x00, 0x00, 0x1c, 0x00, 0x00, 0x00, 0x10, 0xff, 0xff, 0xff,
  0x0f, 0x00, 0x00, 0x00, 0x61, 0x72, 0x69, 0x74, 0x68, 0x2e, 0x63, 0x6f,
  0x6e, 0x73, 0x74, 0x61, 0x6e, 0x74, 0x32, 0x00, 0x01, 0x00, 0x00, 0x00,
  0x20, 0x00, 0x00, 0x00, 0xc6, 0xff, 0xff, 0xff, 0x00, 0x00, 0x00, 0x01,
  0x10, 0x00, 0x00, 0x00, 0x10, 0x00, 0x00, 0x00, 0x03, 0x00, 0x00, 0x00,
  0x1c, 0x00, 0x00, 0x00, 0x48, 0xff, 0xff, 0xff, 0x0f, 0x00, 0x00, 0x00,
  0x61, 0x72, 0x69, 0x74, 0x68, 0x2e, 0x63, 0x6f, 0x6e, 0x73, 0x74, 0x61,
  0x6e, 0x74, 0x31, 0x00, 0x01, 0x00, 0x00, 0x00, 0x08, 0x00, 0x00, 0x00,
  0x00, 0x00, 0x16, 0x00, 0x18, 0x00, 0x14, 0x00, 0x00, 0x00, 0x10, 0x00,
  0x0c, 0x00, 0x08, 0x00, 0x00, 0x00, 0x00, 0x00, 0x00, 0x00, 0x07, 0x00,
  0x16, 0x00, 0x00, 0x00, 0x00, 0x00, 0x00, 0x01, 0x10, 0x00, 0x00, 0x00,
  0x10, 0x00, 0x00, 0x00, 0x02, 0x00, 0x00, 0x00, 0x1c, 0x00, 0x00, 0x00,
  0x98, 0xff, 0xff, 0xff, 0x0e, 0x00, 0x00, 0x00, 0x61, 0x72, 0x69, 0x74,
  0x68, 0x2e, 0x63, 0x6f, 0x6e, 0x73, 0x74, 0x61, 0x6e, 0x74, 0x00, 0x00,
  0x01, 0x00, 0x00, 0x00, 0x10, 0x00, 0x00, 0x00, 0x00, 0x00, 0x16, 0x00,
  0x1c, 0x00, 0x18, 0x00, 0x00, 0x00, 0x14, 0x00, 0x10, 0x00, 0x0c, 0x00,
  0x00, 0x00, 0x00, 0x00, 0x08, 0x00, 0x07, 0x00, 0x16, 0x00, 0x00, 0x00,
  0x00, 0x00, 0x00, 0x01, 0x14, 0x00, 0x00, 0x00, 0x28, 0x00, 0x00, 0x00,
  0x28, 0x00, 0x00, 0x00, 0x01, 0x00, 0x00, 0x00, 0x48, 0x00, 0x00, 0x00,
  0x04, 0x00, 0x00, 0x00, 0xff, 0xff, 0xff, 0xff, 0x60, 0x00, 0x00, 0x00,
  0x60, 0x00, 0x00, 0x00, 0x03, 0x00, 0x00, 0x00, 0x04, 0x00, 0x04, 0x00,
  0x04, 0x00, 0x00, 0x00, 0x21, 0x00, 0x00, 0x00, 0x73, 0x65, 0x72, 0x76,
  0x69, 0x6e, 0x67, 0x5f, 0x64, 0x65, 0x66, 0x61, 0x75, 0x6c, 0x74, 0x5f,
  0x6b, 0x65, 0x72, 0x61, 0x73, 0x5f, 0x74, 0x65, 0x6e, 0x73, 0x6f, 0x72,
  0x5f, 0x34, 0x30, 0x3a, 0x30, 0x00, 0x00, 0x00, 0x04, 0x00, 0x00, 0x00,
  0x01, 0x00, 0x00, 0x00, 0x60, 0x00, 0x00, 0x00, 0x60, 0x00, 0x00, 0x00,
  0x03, 0x00, 0x00, 0x00, 0x05, 0x00, 0x00, 0x00, 0x50, 0x00, 0x00, 0x00,
  0x34, 0x00, 0x00, 0x00, 0x24, 0x00, 0x00, 0x00, 0x14, 0x00, 0x00, 0x00,
  0x04, 0x00, 0x00, 0x00, 0xd0, 0xff, 0xff, 0xff, 0x19, 0x00, 0x00, 0x00,
  0x00, 0x00, 0x00, 0x19, 0xdc, 0xff, 0xff, 0xff, 0x09, 0x00, 0x00, 0x00,
  0x00, 0x00, 0x00, 0x09, 0xe8, 0xff, 0xff, 0xff, 0x28, 0x00, 0x00, 0x00,
  0x00, 0x00, 0x00, 0x28, 0xf4, 0xff, 0xff, 0xff, 0x04, 0x00, 0x00, 0x00,
  0x00, 0x00, 0x00, 0x04, 0x0c, 0x00, 0x0c, 0x00, 0x0b, 0x00, 0x00, 0x00,
  0x00, 0x00, 0x04, 0x00, 0x0c, 0x00, 0x00, 0x00, 0x03, 0x00, 0x00, 0x00,
  0x00, 0x00, 0x00, 0x03
};
const unsigned int flower_model_len = 10180;
